{
  "version": "1.0",
  "truncation": null,
  "padding": null,
  "added_tokens": [
    {
      "id": 0,
      "content": "<pad>",
      "single_word": false,
      "lstrip": false,
      "rstrip": false,
      "normalized": false,
      "special": true
    },
    {
      "id": 1,
      "content": "<unk>",
      "single_word": false,
      "lstrip": false,
      "rstrip": false,
      "normalized": false,
      "special": true
    },
    {
      "id": 2,
      "content": "<sos>",
      "single_word": false,
      "lstrip": false,
      "rstrip": false,
      "normalized": false,
      "special": true
    },
    {
      "id": 3,
      "content": "<eos>",
      "single_word": false,
      "lstrip": false,
      "rstrip": false,
      "normalized": false,
      "special": true
    }
  ],
  "normalizer": {
    "type": "NFKC"
  },
  "pre_tokenizer": {
    "type": "Metaspace",
    "replacement": "▁",
    "prepend_scheme": "always",
    "split": true
  },
  "post_processor": null,
  "decoder": {
    "type": "Metaspace",
    "replacement": "▁",
    "prepend_scheme": "always",
    "split": true
  },
  "model": {
    "type": "BPE",
    "dropout": null,
    "unk_token": "<unk>",
    "continuing_subword_prefix": null,
    "end_of_word_suffix": null,
    "fuse_unk": false,
    "byte_fallback": false,
    "ignore_merges": false,
    "vocab": {
      "<pad>": 0,
      "<unk>": 1,
      "<sos>": 2,
      "<eos>": 3,
      "।": 4,
      "॥": 5,
      "ઁ": 6,
      "ં": 7,
      "ઃ": 8,
      "અ": 9,
      "આ": 10,
      "ઇ": 11,
      "ઈ": 12,
      "ઉ": 13,
      "ઊ": 14,
      "ઋ": 15,
      "ઍ": 16,
      "એ": 17,
      "ઐ": 18,
      "ઑ": 19,
      "ઓ": 20,
      "ઔ": 21,
      "ક": 22,
      "ખ": 23,
      "ગ": 24,
      "ઘ": 25,
      "ઙ": 26,
      "ચ": 27,
      "છ": 28,
      "જ": 29,
      "ઝ": 30,
      "ઞ": 31,
      "ટ": 32,
      "ઠ": 33,
      "ડ": 34,
      "ઢ": 35,
      "ણ": 36,
      "ત": 37,
      "થ": 38,
      "દ": 39,
      "ધ": 40,
      "ન": 41,
      "પ": 42,
      "ફ": 43,
      "બ": 44,
      "ભ": 45,
      "મ": 46,
      "ય": 47,
      "ર": 48,
      "લ": 49,
      "ળ": 50,
      "વ": 51,
      "શ": 52,
      "ષ": 53,
      "સ": 54,
      "હ": 55,
      "઼": 56,
      "ા": 57,
      "િ": 58,
      "ી": 59,
      "ુ": 60,
      "ૂ": 61,
      "ૃ": 62,
      "ૄ": 63,
      "ૅ": 64,
      "ે": 65,
      "ૈ": 66,
      "ૉ": 67,
      "ો": 68,
      "ૌ": 69,
      "્": 70,
      "ૐ": 71,
      "ૠ": 72,
      "ૢ": 73,
      "▁": 74,
      "▁ક": 75,
      "મા": 76,
      "▁પ": 77,
      "▁સ": 78,
      "▁છ": 79,
      "વા": 80,
      "▁ત": 81,
      "ને": 82,
      "▁છે": 83,
      "્ર": 84,
      "▁અ": 85,
      "્ય": 86,
      "▁જ": 87,
      "▁આ": 88,
      "ના": 89,
      "માં": 90,
      "ાર": 91,
      "▁વ": 92,
      "▁હ": 93,
      "▁મ": 94,
      "ની": 95,
      "▁ર": 96,
      "▁બ": 97,
      "ું": 98,
      "▁કર": 99,
      "ર્": 100,
      "▁તે": 101,
      "▁એ": 102,
      "▁મા": 103,
      "▁શ": 104,
      "▁ન": 105,
      "તા": 106,
      "▁દ": 107,
      "▁લ": 108,
      "▁અને": 109,
      "થી": 110,
      "ટે": 111,
      "▁કે": 112,
      "▁ગ": 113,
      "સ્": 114,
      "ક્": 115,
      "લા": 116,
      "રા": 117,
      "▁પ્ર": 118,
      "ન્": 119,
      "રી": 120,
      "▁સા": 121,
      "▁પર": 122,
      "્યા": 123,
      "નો": 124,
      "િક": 125,
      "▁માટે": 126,
      "▁ફ": 127,
      "યા": 128,
      "▁આવ": 129,
      "▁ઉ": 130,
      "▁ખ": 131,
      "▁સ્": 132,
      "▁ભ": 133,
      "▁ચ": 134,
      "મે": 135,
      "▁થ": 136,
      "▁વિ": 137,
      "▁હત": 138,
      "▁એક": 139,
      "ાય": 140,
      "હે": 141,
      "▁જે": 142,
      "ંગ": 143,
      "કો": 144,
      "વી": 145,
      "લી": 146,
      "▁જો": 147,
      "િત": 148,
      "શે": 149,
      "ંત": 150,
      "▁પણ": 151,
      "વામાં": 152,
      "કે": 153,
      "▁પા": 154,
      "લ્": 155,
      "▁કો": 156,
      "▁ટ": 157,
      "ાવ": 158,
      "યો": 159,
      "નું": 160,
      "▁કરી": 161,
      "▁હો": 162,
      "રે": 163,
      "થે": 164,
      "▁ડ": 165,
      "ત્": 166,
      "▁રા": 167,
      "ણી": 168,
      "▁સાથે": 169,
      "કા": 170,
      "▁વા": 171,
      "િયા": 172,
      "▁ઘ": 173,
      "▁ના": 174,
      "તિ": 175,
      "લે": 176,
      "્યો": 177,
      "▁સં": 178,
      "વે": 179,
      "▁તેમ": 180,
      "હી": 181,
      "ત્ર": 182,
      "▁મો": 183,
      "▁સમ": 184,
      "▁ધ": 185,
      "▁બા": 186,
      "ક્ષ": 187,
      "્યું": 188,
      "▁આપ": 189,
      "રો": 190,
      "▁વધ": 191,
      "▁કાર": 192,
      "ારે": 193,
      "ામ": 194,
      "તી": 195,
      "ડી": 196,
      "ાન": 197,
      "ટી": 198,
      "▁સુ": 199,
      "કાર": 200,
      "▁પો": 201,
      "▁લા": 202,
      "▁ઓ": 203,
      "ણે": 204,
      "તે": 205,
      "▁હતી": 206,
      "▁લો": 207,
      "રૂ": 208,
      "▁કરવા": 209,
      "▁નથી": 210,
      "ડા": 211,
      "▁બે": 212,
      "િય": 213,
      "ંધ": 214,
      "▁ઉપ": 215,
      "▁તો": 216,
      "ંદ": 217,
      "્રે": 218,
      "▁તમા": 219,
      "જી": 220,
      "▁માં": 221,
      "લો": 222,
      "▁મે": 223,
      "▁જા": 224,
      "▁મુ": 225,
      "કી": 226,
      "સે": 227,
      "▁આવે": 228,
      "સા": 229,
      "▁તમે": 230,
      "સ્ટ": 231,
      "પા": 232,
      "▁વર્": 233,
      "ણા": 234,
      "ેશ": 235,
      "્રી": 236,
      "▁ઇ": 237,
      "ષ્": 238,
      "ટા": 239,
      "ન્ટ": 240,
      "ારી": 241,
      "▁છો": 242,
      "િવ": 243,
      "ધી": 244,
      "્યારે": 245,
      "▁અન": 246,
      "▁હતા": 247,
      "જા": 248,
      "દી": 249,
      "▁રી": 250,
      "ળી": 251,
      "સ્ત": 252,
      "ંચ": 253,
      "▁હા": 254,
      "▁હતો": 255,
      "શ્": 256,
      "્યુ": 257,
      "▁મહ": 258,
      "વું": 259,
      "ભા": 260,
      "સી": 261,
      "▁રો": 262,
      "િંગ": 263,
      "ાર્": 264,
      "▁ભા": 265,
      "યુ": 266,
      "▁હોય": 267,
      "તો": 268,
      "યોગ": 269,
      "દ્": 270,
      "▁નિ": 271,
      "▁લે": 272,
      "▁વધુ": 273,
      "▁રહ": 274,
      "દા": 275,
      "▁સર": 276,
      "છી": 277,
      "▁ખા": 278,
      "▁શકે": 279,
      "ન્ડ": 280,
      "▁કરવામાં": 281,
      "વાર": 282,
      "▁કા": 283,
      "વિ": 284,
      "મી": 285,
      "▁કરે": 286,
      "પ્": 287,
      "્રા": 288,
      "શન": 289,
      "▁કરો": 290,
      "માન": 291,
      "્યાં": 292,
      "▁સે": 293,
      "▁રીતે": 294,
      "ંતુ": 295,
      "▁ની": 296,
      "▁લોકો": 297,
      "ળા": 298,
      "િલ્": 299,
      "્વા": 300,
      "▁આવી": 301,
      "▁સ્થ": 302,
      "▁ગુ": 303,
      "▁સમય": 304,
      "▁હતું": 305,
      "▁રહે": 306,
      "મ્": 307,
      "▁કોઈ": 308,
      "▁વર્ષ": 309,
      "▁પરંતુ": 310,
      "ધા": 311,
      "જે": 312,
      "▁જી": 313,
      "ટર": 314,
      "▁શક": 315,
      "ગી": 316,
      "▁બના": 317,
      "▁પછી": 318,
      "ૂર્": 319,
      "પી": 320,
      "ચ્": 321,
      "▁અથ": 322,
      "▁નો": 323,
      "્વારા": 324,
      "▁બી": 325,
      "વો": 326,
      "▁દ્વારા": 327,
      "બા": 328,
      "▁અથવા": 329,
      "તાં": 330,
      "▁યુ": 331,
      "▁તેના": 332,
      "▁સિ": 333,
      "હીં": 334,
      "▁જરૂ": 335,
      "▁પહે": 336,
      "ન્સ": 337,
      "▁થાય": 338,
      "▁મળ": 339,
      "▁પે": 340,
      "▁વ્ય": 341,
      "વાની": 342,
      "▁દે": 343,
      "િન": 344,
      "બી": 345,
      "▁પુ": 346,
      "▁રે": 347,
      "ડે": 348,
      "▁તેઓ": 349,
      "ોલ": 350,
      "▁સુધી": 351,
      "▁પરિ": 352,
      "▁રાજ": 353,
      "શા": 354,
      "▁રૂ": 355,
      "▁પોતા": 356,
      "ટો": 357,
      "ારો": 358,
      "▁ચા": 359,
      "રમાં": 360,
      "્સ": 361,
      "ચે": 362,
      "રણ": 363,
      "▁કામ": 364,
      "ક્ર": 365,
      "▁ઝ": 366,
      "ૂર": 367,
      "થા": 368,
      "િટ": 369,
      "▁શા": 370,
      "▁દર": 371,
      "ષ્ટ": 372,
      "▁ઈ": 373,
      "▁જોઈ": 374,
      "▁વે": 375,
      "▁કિ": 376,
      "ંક": 377,
      "▁રાખ": 378,
      "▁દિવ": 379,
      "▁સૌ": 380,
      "▁થઈ": 381,
      "ચા": 382,
      "▁પી": 383,
      "▁ભાર": 384,
      "▁ને": 385,
      "િકા": 386,
      "▁તા": 387,
      "ર્ટ": 388,
      "ેર": 389,
      "▁ઉપયોગ": 390,
      "ંડ": 391,
      "▁સો": 392,
      "ક્સ": 393,
      "▁મૂ": 394,
      "મો": 395,
      "▁તમારા": 396,
      "▁ઉત્": 397,
      "▁મી": 398,
      "દ્ધ": 399,
      "ગે": 400,
      "▁લી": 401,
      "▁ટે": 402,
      "પ્ર": 403,
      "▁સી": 404,
      "▁કેટ": 405,
      "ુક": 406,
      "▁ક્": 407,
      "જન": 408,
      "બર": 409,
      "િલ": 410,
      "હો": 411,
      "▁ખૂ": 412,
      "▁લગ": 413,
      "▁અમે": 414,
      "પો": 415,
      "સો": 416,
      "ક્તિ": 417,
      "ણો": 418,
      "▁જ્યારે": 419,
      "▁બાળ": 420,
      "સર": 421,
      "▁કં": 422,
      "મને": 423,
      "નમાં": 424,
      "ર્સ": 425,
      "▁તરી": 426,
      "▁તેને": 427,
      "▁માત્ર": 428,
      "▁શકો": 429,
      "ગર": 430,
      "▁બો": 431,
      "ડો": 432,
      "▁ફો": 433,
      "▁તરીકે": 434,
      "▁તેમના": 435,
      "▁શું": 436,
      "્રો": 437,
      "▁હે": 438,
      "ારા": 439,
      "▁જોઈએ": 440,
      "▁ડિ": 441,
      "▁સમા": 442,
      "ખા": 443,
      "ેલા": 444,
      "▁બાદ": 445,
      "▁ખૂબ": 446,
      "▁રહી": 447,
      "▁શરૂ": 448,
      "▁ચો": 449,
      "પૂર્": 450,
      "▁પહેલા": 451,
      "▁પોલી": 452,
      "▁ટી": 453,
      "તર": 454,
      "માંથી": 455,
      "▁અન્ય": 456,
      "▁બનાવ": 457,
      "▁સૌથી": 458,
      "લાક": 459,
      "ગા": 460,
      "▁નહીં": 461,
      "▁ફિલ્": 462,
      "▁મહિ": 463,
      "▁તેની": 464,
      "▁શો": 465,
      "▁પડ": 466,
      "▁ગા": 467,
      "▁પસ": 468,
      "▁કુ": 469,
      "▁કાર્ય": 470,
      "▁પાણી": 471,
      "▁અનુ": 472,
      "▁કહ": 473,
      "▁હવે": 474,
      "▁દી": 475,
      "▁આગ": 476,
      "હાર": 477,
      "વાદ": 478,
      "▁સામે": 479,
      "નિ": 480,
      "▁ઊ": 481,
      "દેશ": 482,
      "▁ચૂ": 483,
      "▁જરૂર": 484,
      "ાઇ": 485,
      "હિત": 486,
      "▁થી": 487,
      "ણાવ": 488,
      "ચાર": 489,
      "▁અભ": 490,
      "▁કારણ": 491,
      "થમ": 492,
      "▁અલ": 493,
      "▁દેશ": 494,
      "ક્ત": 495,
      "્રણ": 496,
      "▁દુ": 497,
      "પે": 498,
      "▁કારણે": 499,
      "નાં": 500,
      "સ્તા": 501,
      "▁વિશે": 502,
      "▁તેમણે": 503,
      "▁ભાગ": 504,
      "જુ": 505,
      "▁કહે": 506,
      "▁ત્યારે": 507,
      "▁વાત": 508,
      "ન્દ": 509,
      "▁જવા": 510,
      "▁ત્યાં": 511,
      "▁સ્વ": 512,
      "▁અમ": 513,
      "▁જીવ": 514,
      "લિ": 515,
      "ક્ટ": 516,
      "માન્ય": 517,
      "પની": 518,
      "બંધ": 519,
      "▁દિવસ": 520,
      "શો": 521,
      "ર્ડ": 522,
      "ર્થ": 523,
      "▁આધ": 524,
      "▁કર્યો": 525,
      "બ્": 526,
      "રફ": 527,
      "તમાં": 528,
      "ંટ": 529,
      "વાનું": 530,
      "હા": 531,
      "▁પૂ": 532,
      "▁પ્રો": 533,
      "▁પ્રા": 534,
      "▁રહ્યા": 535,
      "▁સરકાર": 536,
      "▁મળી": 537,
      "ેલ": 538,
      "▁રિ": 539,
      "સ્થ": 540,
      "ગ્ર": 541,
      "છા": 542,
      "ઓને": 543,
      "યું": 544,
      "▁કહ્યું": 545,
      "લમાં": 546,
      "પૂર્ણ": 547,
      "ક્ષા": 548,
      "▁પાસે": 549,
      "▁દરમ": 550,
      "▁પ્રથમ": 551,
      "▁સૂ": 552,
      "▁જુ": 553,
      "▁તેમને": 554,
      "▁ઘણા": 555,
      "ળો": 556,
      "▁ગો": 557,
      "▁ભૂ": 558,
      "ંભ": 559,
      "રેક": 560,
      "ત્રી": 561,
      "▁જણાવ": 562,
      "▁ડે": 563,
      "શી": 564,
      "▁નોંધ": 565,
      "▁બદ": 566,
      "▁સામાન્ય": 567,
      "▁પસંદ": 568,
      "િયાન": 569,
      "▁તમામ": 570,
      "▁વ્યક્તિ": 571,
      "▁વખ": 572,
      "▁શકાય": 573,
      "દન": 574,
      "▁માન": 575,
      "▁જાય": 576,
      "▁મુખ": 577,
      "▁ઘટ": 578,
      "ત્વ": 579,
      "▁મેળ": 580,
      "▁માર્": 581,
      "▁બધા": 582,
      "વાનો": 583,
      "▁દરેક": 584,
      "વર": 585,
      "▁કરીને": 586,
      "▁ફે": 587,
      "▁એટ": 588,
      "▁નિર્": 589,
      "િતિ": 590,
      "▁ફિલ્મ": 591,
      "રુ": 592,
      "▁વિસ્ત": 593,
      "દર": 594,
      "▁પગ": 595,
      "્રેસ": 596,
      "▁આજે": 597,
      "▁જોવા": 598,
      "▁થો": 599,
      "▁આપી": 600,
      "લુ": 601,
      "▁તૈ": 602,
      "▁પહો": 603,
      "ર્મ": 604,
      "▁મોટા": 605,
      "સિ": 606,
      "▁તમને": 607,
      "▁દા": 608,
      "જો": 609,
      "ૃત": 610,
      "▁હું": 611,
      "મત": 612,
      "▁મિ": 613,
      "ક્ષણ": 614,
      "▁સર્": 615,
      "▁મુખ્ય": 616,
      "▁લાગ": 617,
      "▁વી": 618,
      "▁ખુ": 619,
      "▁દરમિયાન": 620,
      "▁પ્": 621,
      "▁થઇ": 622,
      "▁પ્રકાર": 623,
      "▁હાથ": 624,
      "▁સફ": 625,
      "▁ગયા": 626,
      "▁યા": 627,
      "▁પોલીસ": 628,
      "▁ક્ર": 629,
      "▁નામ": 630,
      "રના": 631,
      "▁કંપની": 632,
      "▁તેથી": 633,
      "▁જરૂરી": 634,
      "▁પોતાના": 635,
      "▁અંત": 636,
      "▁તૈય": 637,
      "દો": 638,
      "વારે": 639,
      "▁બની": 640,
      "▁ખાસ": 641,
      "▁ઓફ": 642,
      "પાસ": 643,
      "▁કેટલાક": 644,
      "▁અલગ": 645,
      "જરા": 646,
      "▁ખો": 647,
      "▁કરવાની": 648,
      "▁કેવી": 649,
      "▁અધ": 650,
      "▁તમારી": 651,
      "ગો": 652,
      "▁વચ્": 653,
      "▁યો": 654,
      "▁ઠ": 655,
      "જબ": 656,
      "પુ": 657,
      "▁વચ્ચે": 658,
      "ચી": 659,
      "▁ફર": 660,
      "▁ટકા": 661,
      "▁ચે": 662,
      "▁યોગ": 663,
      "▁સાર": 664,
      "▁તેમની": 665,
      "▁પ્રતિ": 666,
      "પણ": 667,
      "મિ": 668,
      "▁પ્રે": 669,
      "ગત": 670,
      "વાન": 671,
      "▁જેમાં": 672,
      "વિધ": 673,
      "▁ગુજરા": 674,
      "▁દો": 675,
      "▁વિક": 676,
      "▁કર્યું": 677,
      "ન્દ્ર": 678,
      "▁ભારત": 679,
      "▁પહોંચ": 680,
      "▁દર્": 681,
      "દદ": 682,
      "▁બહાર": 683,
      "લિક": 684,
      "સ્થા": 685,
      "▁વિશ્": 686,
      "▁કરતા": 687,
      "▁નિય": 688,
      "▁લઈ": 689,
      "▁અંગ": 690,
      "▁સ્પ": 691,
      "▁કરશે": 692,
      "લું": 693,
      "▁બંધ": 694,
      "▁રંગ": 695,
      "▁હિ": 696,
      "નની": 697,
      "તું": 698,
      "દાર": 699,
      "ધાન": 700,
      "▁ત્રણ": 701,
      "▁ધરા": 702,
      "કરી": 703,
      "▁દૂર": 704,
      "▁આવ્યા": 705,
      "▁ઉત્પા": 706,
      "▁વર": 707,
      "▁મદદ": 708,
      "▁એમ": 709,
      "▁જેમ": 710,
      "▁ખે": 711,
      "રની": 712,
      "કિ": 713,
      "▁જૂ": 714,
      "▁આવ્યો": 715,
      "▁સરળ": 716,
      "બે": 717,
      "વાય": 718,
      "▁શિ": 719,
      "▁આવશે": 720,
      "જના": 721,
      "કસ": 722,
      "▁રૂપ": 723,
      "▁આપે": 724,
      "િયન": 725,
      "ખ્યા": 726,
      "▁બિ": 727,
      "મક": 728,
      "▁થશે": 729,
      "▁બાળકો": 730,
      "▁જાણ": 731,
      "▁અહીં": 732,
      "▁તરફ": 733,
      "દે": 734,
      "▁ભાવ": 735,
      "ૂત": 736,
      "▁બન": 737,
      "ંત્ર": 738,
      "▁મહિલા": 739,
      "ડિ": 740,
      "પરા": 741,
      "▁અસર": 742,
      "▁પૂર્": 743,
      "દર્": 744,
      "▁સ્ટ": 745,
      "▁કરતાં": 746,
      "ાઈ": 747,
      "ષ્ઠ": 748,
      "જ્": 749,
      "ીએ": 750,
      "▁જાહે": 751,
      "▁ધ્યા": 752,
      "▁સામ": 753,
      "▁મોદી": 754,
      "ંબા": 755,
      "▁થયો": 756,
      "ડિયા": 757,
      "▁વિવિધ": 758,
      "વેશ": 759,
      "▁ગ્ર": 760,
      "▁કોંગ": 761,
      "▁ઘણી": 762,
      "એસ": 763,
      "▁ક્ષ": 764,
      "ત્ય": 765,
      "▁શહે": 766,
      "નિક": 767,
      "પર": 768,
      "▁હશે": 769,
      "પ્ત": 770,
      "જાર": 771,
      "ભાવ": 772,
      "▁કરોડ": 773,
      "▁ગર": 774,
      "▁ઉપર": 775,
      "▁કપ": 776,
      "▁સ્ટે": 777,
      "▁બં": 778,
      "્ન": 779,
      "હુ": 780,
      "▁આવ્યું": 781,
      "▁ભાજ": 782,
      "લ્સ": 783,
      "ઓમાં": 784,
      "▁કર્યા": 785,
      "▁ઉમે": 786,
      "▁રાજ્ય": 787,
      "વવા": 788,
      "▁સુર": 789,
      "સ્તુ": 790,
      "ાયો": 791,
      "મમાં": 792,
      "જૂ": 793,
      "▁શ્રે": 794,
      "મેન્ટ": 795,
      "▁ખરી": 796,
      "▁ટો": 797,
      "ખી": 798,
      "ફો": 799,
      "▁ઘટના": 800,
      "પના": 801,
      "▁ય": 802,
      "▁દિ": 803,
      "▁આરો": 804,
      "ચના": 805,
      "▁રહ્યો": 806,
      "્યૂ": 807,
      "જર": 808,
      "▁પાર્": 809,
      "વણી": 810,
      "▁ઝડ": 811,
      "▁ડો": 812,
      "▁લાખ": 813,
      "બો": 814,
      "▁પ્રમા": 815,
      "▁આવા": 816,
      "▁પોતાની": 817,
      "▁સંપૂર્ણ": 818,
      "▁બંને": 819,
      "▁થયા": 820,
      "▁ચૂંટ": 821,
      "િસ": 822,
      "ેટ": 823,
      "▁ફરી": 824,
      "▁બેઠ": 825,
      "મ્પ": 826,
      "સ્પ": 827,
      "▁જીવન": 828,
      "રને": 829,
      "સ્ક": 830,
      "▁સહ": 831,
      "▁તૈયાર": 832,
      "▁મહત્વ": 833,
      "ામી": 834,
      "▁મળે": 835,
      "▁સારી": 836,
      "▁શરી": 837,
      "▁વ્યવ": 838,
      "તાઓ": 839,
      "લ્ડ": 840,
      "▁સમયે": 841,
      "▁નીચે": 842,
      "▁ચૂંટણી": 843,
      "ધો": 844,
      "ઇટ": 845,
      "ચ્છ": 846,
      "ર્ષ": 847,
      "▁પહેલાં": 848,
      "▁યોગ્ય": 849,
      "▁પ્રવા": 850,
      "▁વો": 851,
      "▁હોવા": 852,
      "િતા": 853,
      "▁આધાર": 854,
      "▁કોંગ્રેસ": 855,
      "▁આપવામાં": 856,
      "▁અધિક": 857,
      "▁કોઇ": 858,
      "▁રોજ": 859,
      "ગ્રી": 860,
      "▁સંબંધ": 861,
      "▁વિસ્તાર": 862,
      "સ્યા": 863,
      "▁જણાવ્યું": 864,
      "▁નવા": 865,
      "લ્લા": 866,
      "▁જોકે": 867,
      "▁વાર": 868,
      "▁રૂપિયા": 869,
      "તુ": 870,
      "▁વ્યા": 871,
      "્વ": 872,
      "ગ્યા": 873,
      "▁શુ": 874,
      "શિ": 875,
      "દ્ય": 876,
      "કરણ": 877,
      "ઓની": 878,
      "ંત્રી": 879,
      "▁ધો": 880,
      "▁તેમજ": 881,
      "▁બીજા": 882,
      "▁અપ": 883,
      "ચર": 884,
      "્રિ": 885,
      "▁વધારે": 886,
      "▁ચી": 887,
      "▁જવાબ": 888,
      "નના": 889,
      "▁વખત": 890,
      "ત્તા": 891,
      "સમાં": 892,
      "સાદ": 893,
      "ર્ક": 894,
      "▁બાળક": 895,
      "મુ": 896,
      "ટેલ": 897,
      "કલ": 898,
      "▁સ્થા": 899,
      "▁સમસ્યા": 900,
      "▁ટ્રે": 901,
      "▁શક્ય": 902,
      "▁ફૂ": 903,
      "▁ડી": 904,
      "દાન": 905,
      "▁સ્થિતિ": 906,
      "સ્સા": 907,
      "તરી": 908,
      "ક્રિયા": 909,
      "▁મોટી": 910,
      "બલ": 911,
      "▁અંગે": 912,
      "▁આમ": 913,
      "▁વિશ્વ": 914,
      "▁ગયો": 915,
      "▁નવી": 916,
      "ત્મક": 917,
      "▁પડે": 918,
      "ંકા": 919,
      "▁જ્યાં": 920,
      "ુંબ": 921,
      "▁ઘટા": 922,
      "▁રસ": 923,
      "ંખ": 924,
      "▁એટલે": 925,
      "▁વસ્તુ": 926,
      "▁ઉપરા": 927,
      "ર્ચ": 928,
      "સાર": 929,
      "▁તપાસ": 930,
      "ેલી": 931,
      "તીય": 932,
      "▁રહ્યું": 933,
      "▁હોઈ": 934,
      "▁સારવાર": 935,
      "કર": 936,
      "▁સ્થાન": 937,
      "ઇન": 938,
      "ભગ": 939,
      "▁આગળ": 940,
      "રિક": 941,
      "વાના": 942,
      "▁છીએ": 943,
      "▁મધ": 944,
      "▁જેથી": 945,
      "▁ફ્": 946,
      "▁લાગે": 947,
      "ટ્સ": 948,
      "પણે": 949,
      "હિ": 950,
      "▁અંદ": 951,
      "▁દેખ": 952,
      "▁કર્": 953,
      "▁લગભગ": 954,
      "▁સંગ": 955,
      "▁અવ": 956,
      "▁સ્ક": 957,
      "▁ગુજરાત": 958,
      "▁બોલ": 959,
      "િત્ર": 960,
      "▁ઉપરાંત": 961,
      "▁બ્": 962,
      "ોમાં": 963,
      "ક્ટર": 964,
      "▁ગઈ": 965,
      "નાર": 966,
      "▁ચિ": 967,
      "▁પ્રક્રિયા": 968,
      "ભાગ": 969,
      "▁માતા": 970,
      "ુમ": 971,
      "▁અનેક": 972,
      "▁અર્થ": 973,
      "▁પાછ": 974,
      "▁છતાં": 975,
      "શ્કે": 976,
      "▁મને": 977,
      "ઇએ": 978,
      "લના": 979,
      "▁ગામ": 980,
      "▁વૃ": 981,
      "ાર્થી": 982,
      "▁ગણ": 983,
      "▁લોક": 984,
      "▁શે": 985,
      "▁ભર": 986,
      "ંસ": 987,
      "▁ક્યારે": 988,
      "પોર્ટ": 989,
      "િર": 990,
      "▁કાર્": 991,
      "▁નાના": 992,
      "▁રહેશે": 993,
      "ટક": 994,
      "▁વિચાર": 995,
      "નુ": 996,
      "▁ડા": 997,
      "▁લેવા": 998,
      "ળતા": 999,
      "▁પાંચ": 1000,
      "જ્ઞ": 1001,
      "▁ગે": 1002,
      "▁તેમાં": 1003,
      "▁મહે": 1004,
      "કિસ્તા": 1005,
      "▁જગ્યા": 1006,
      "▁ધર": 1007,
      "▁લક્ષ": 1008,
      "▁અમા": 1009,
      "તન": 1010,
      "િલ્લા": 1011,
      "▁નિર્ણ": 1012,
      "યર": 1013,
      "કડ": 1014,
      "ફ્": 1015,
      "િકાસ": 1016,
      "ંધી": 1017,
      "▁બને": 1018,
      "▁ખાતે": 1019,
      "▁માહિત": 1020,
      "▁થયું": 1021,
      "▁લિ": 1022,
      "▁પાકિસ્તા": 1023,
      "ટિંગ": 1024,
      "▁અભિ": 1025,
      "ાવવા": 1026,
      "ધું": 1027,
      "કાશ": 1028,
      "એમ": 1029,
      "▁થય": 1030,
      "▁પરિણ": 1031,
      "કારી": 1032,
      "▁લગ્ન": 1033,
      "▁વરસાદ": 1034,
      "સાય": 1035,
      "ારીઓ": 1036,
      "્યાર": 1037,
      "તિક": 1038,
      "તમ": 1039,
      "▁જેટ": 1040,
      "ાવે": 1041,
      "▁કિસ્સા": 1042,
      "▁માહિતી": 1043,
      "ાવો": 1044,
      "▁સાધ": 1045,
      "▁ચાર": 1046,
      "ર્ન": 1047,
      "▁છું": 1048,
      "▁મુશ્કે": 1049,
      "▁કરવું": 1050,
      "▁મુજબ": 1051,
      "▁જેના": 1052,
      "ટમાં": 1053,
      "ુંદર": 1054,
      "ત્તિ": 1055,
      "િમ": 1056,
      "▁અર": 1057,
      "જીક": 1058,
      "▁ફા": 1059,
      "▁વિદ્ય": 1060,
      "▁સ્વા": 1061,
      "ષ્ટ્ર": 1062,
      "ક્કસ": 1063,
      "▁સહિત": 1064,
      "ંડા": 1065,
      "ળે": 1066,
      "▁મૃત": 1067,
      "ર્ચા": 1068,
      "ણમાં": 1069,
      "▁બીજી": 1070,
      "▁જિલ્લા": 1071,
      "▁સમાવેશ": 1072,
      "▁મારી": 1073,
      "▁પરિવાર": 1074,
      "▁ટ્ર": 1075,
      "▁લાંબા": 1076,
      "▁જન્": 1077,
      "▁ભારતીય": 1078,
      "▁લાભ": 1079,
      "▁સંખ્યા": 1080,
      "▁ઓછા": 1081,
      "▁ચોક્કસ": 1082,
      "▁ધ્યાન": 1083,
      "ભાઈ": 1084,
      "સિક": 1085,
      "▁મંદ": 1086,
      "▁પ્લા": 1087,
      "▁સમગ્ર": 1088,
      "▁શોધ": 1089,
      "ડવા": 1090,
      "▁પ્રયા": 1091,
      "▁બનાવવા": 1092,
      "ત્રો": 1093,
      "▁તથા": 1094,
      "હરણ": 1095,
      "ંબ": 1096,
      "▁મહિના": 1097,
      "▁પડશે": 1098,
      "▁ઉદા": 1099,
      "▁વિદ્યાર્થી": 1100,
      "▁પડી": 1101,
      "▁બાબ": 1102,
      "▁ધરાવે": 1103,
      "▁ટીમ": 1104,
      "▁ઓળ": 1105,
      "▁શી": 1106,
      "▁પૈ": 1107,
      "મણ": 1108,
      "લેટ": 1109,
      "હન": 1110,
      "▁ધી": 1111,
      "કાત": 1112,
      "▁મૂળ": 1113,
      "▁આપણે": 1114,
      "▁લઇ": 1115,
      "ટન": 1116,
      "▁ગ્રા": 1117,
      "ભવ": 1118,
      "રિ": 1119,
      "▁કાય": 1120,
      "▁સેવા": 1121,
      "▁ફાય": 1122,
      "▁વિકાસ": 1123,
      "ંહ": 1124,
      "▁એસ": 1125,
      "▁પોલીસે": 1126,
      "▁મામ": 1127,
      "▁શ્રેષ્ઠ": 1128,
      "▁ત્યાર": 1129,
      "આત": 1130,
      "▁કલાક": 1131,
      "▁દવા": 1132,
      "રામ": 1133,
      "▁સ્ત્રી": 1134,
      "▁મુલા": 1135,
      "▁નક્": 1136,
      "▁ટા": 1137,
      "ચ્ચ": 1138,
      "લાઈ": 1139,
      "▁કિં": 1140,
      "▁શબ્": 1141,
      "િયલ": 1142,
      "ઓના": 1143,
      "▁હજુ": 1144,
      "▁નિર્ણય": 1145,
      "વક": 1146,
      "▁નુક": 1147,
      "▁કોઈપણ": 1148,
      "▁મત": 1149,
      "▁રોગ": 1150,
      "▁બુ": 1151,
      "▁હં": 1152,
      "લ્પ": 1153,
      "વાલ": 1154,
      "લન": 1155,
      "કારો": 1156,
      "થ્": 1157,
      "▁જાણી": 1158,
      "▁હાલ": 1159,
      "▁સત": 1160,
      "▁જાહેર": 1161,
      "▁તેનો": 1162,
      "કીય": 1163,
      "▁વખતે": 1164,
      "▁સુંદર": 1165,
      "ૃતિ": 1166,
      "▁નજીક": 1167,
      "▁મારા": 1168,
      "▁ઉત્પાદન": 1169,
      "▁પૂર": 1170,
      "▁બનાવી": 1171,
      "▁એવું": 1172,
      "▁તમારે": 1173,
      "▁મળશે": 1174,
      "▁દિલ્": 1175,
      "ંઘ": 1176,
      "▁સુધ": 1177,
      "માર": 1178,
      "▁થોડા": 1179,
      "મ્બર": 1180,
      "લ્લે": 1181,
      "વાસ": 1182,
      "▁પ્રેમ": 1183,
      "જય": 1184,
      "▁અમદા": 1185,
      "▁હેઠ": 1186,
      "▁એન્": 1187,
      "▁ચાલ": 1188,
      "▁કેટલી": 1189,
      "▁લખ": 1190,
      "▁કુલ": 1191,
      "▁માર્ગ": 1192,
      "ીર": 1193,
      "શ્ય": 1194,
      "▁ઇન્": 1195,
      "▁ઉદાહરણ": 1196,
      "▁હેઠળ": 1197,
      "▁પેટ": 1198,
      "▁પરી": 1199,
      "▁સૂચ": 1200,
      "મેશા": 1201,
      "▁અમદાવાદ": 1202,
      "▁નક્કી": 1203,
      "▁છા": 1204,
      "▁યાદ": 1205,
      "ઠા": 1206,
      "▁ચૂક": 1207,
      "ીને": 1208,
      "▁આર": 1209,
      "▁વપરા": 1210,
      "▁યોજના": 1211,
      "▁વધારો": 1212,
      "કત": 1213,
      "▁ખાન": 1214,
      "▁ગાંધી": 1215,
      "ળામાં": 1216,
      "▁પક્ષ": 1217,
      "ેશન": 1218,
      "▁કેન્દ્ર": 1219,
      "▁દિલ્હી": 1220,
      "▁અનુસાર": 1221,
      "ઇલ": 1222,
      "▁રજૂ": 1223,
      "ડિયો": 1224,
      "▁લોકોને": 1225,
      "▁ભો": 1226,
      "▁પરિણામ": 1227,
      "▁સલા": 1228,
      "▁એવી": 1229,
      "▁દિવસે": 1230,
      "▁ઉત્પાદ": 1231,
      "▁વડા": 1232,
      "▁હંમેશા": 1233,
      "▁આંત": 1234,
      "▁તેણે": 1235,
      "▁મિન": 1236,
      "▁ફેર": 1237,
      "▁બાજુ": 1238,
      "ગ્": 1239,
      "▁પ્રશ્": 1240,
      "થો": 1241,
      "▁નિષ્": 1242,
      "▁પાછળ": 1243,
      "▁મુદ્": 1244,
      "▁માણ": 1245,
      "▁છેલ્લા": 1246,
      "▁કલા": 1247,
      "મતા": 1248,
      "▁ઘર": 1249,
      "▁ચાલુ": 1250,
      "▁વિરો": 1251,
      "▁ભાજપ": 1252,
      "નગર": 1253,
      "▁વૈ": 1254,
      "નીય": 1255,
      "▁નં": 1256,
      "▁વર્ષે": 1257,
      "▁હજાર": 1258,
      "▁ભારે": 1259,
      "▁ખેડ": 1260,
      "▁સતત": 1261,
      "્રીય": 1262,
      "નને": 1263,
      "▁પ્રયાસ": 1264,
      "▁ફક્ત": 1265,
      "▁કાર્યક્ર": 1266,
      "▁એલ": 1267,
      "▁સ્ટો": 1268,
      "▁જોડ": 1269,
      "વવામાં": 1270,
      "▁ખર્ચ": 1271,
      "▁તક": 1272,
      "ફી": 1273,
      "ંજ": 1274,
      "▁લઈને": 1275,
      "ઇડ": 1276,
      "નારા": 1277,
      "▁વગર": 1278,
      "▁એર": 1279,
      "રાક": 1280,
      "▁ગુણ": 1281,
      "▁જોઇએ": 1282,
      "▁સામગ્રી": 1283,
      "્રીમ": 1284,
      "▁સિસ્ટ": 1285,
      "પ્રિય": 1286,
      "ીત": 1287,
      "▁માંગ": 1288,
      "▁ચર્ચા": 1289,
      "▁કરવો": 1290,
      "▁પત્": 1291,
      "▁જશે": 1292,
      "િકો": 1293,
      "▁જમી": 1294,
      "ણાં": 1295,
      "▁સારા": 1296,
      "▁વિચ": 1297,
      "▁દર્શ": 1298,
      "▁ઓછી": 1299,
      "▁હતાં": 1300,
      "▁કરા": 1301,
      "▁જન્મ": 1302,
      "સાન": 1303,
      "િયમ": 1304,
      "▁અત્ય": 1305,
      "▁ઊંચ": 1306,
      "▁શર": 1307,
      "▁બેઠક": 1308,
      "▁મોત": 1309,
      "ટલ": 1310,
      "▁બચ": 1311,
      "▁મજબ": 1312,
      "▁નવ": 1313,
      "▁વધુમાં": 1314,
      "▁હકી": 1315,
      "▁રચના": 1316,
      "▁હુમ": 1317,
      "▁ટ્રા": 1318,
      "▁લેખ": 1319,
      "▁પિતા": 1320,
      "ષણ": 1321,
      "▁પાર્ટી": 1322,
      "▁ગ્રામ": 1323,
      "▁કરવાનો": 1324,
      "▁નિયમ": 1325,
      "▁મધ્ય": 1326,
      "કમ": 1327,
      "▁ભે": 1328,
      "▁અસ": 1329,
      "▁વાળ": 1330,
      "▁માર": 1331,
      "▁જય": 1332,
      "▁સમજ": 1333,
      "ગીરી": 1334,
      "▁જેવા": 1335,
      "▁રાહ": 1336,
      "▁સ્પષ્ટ": 1337,
      "▁ખરીદી": 1338,
      "▁એન": 1339,
      "▁મેચ": 1340,
      "▁આક": 1341,
      "કળ": 1342,
      "જરી": 1343,
      "લેન્ડ": 1344,
      "▁સપ્": 1345,
      "▁કંઈ": 1346,
      "▁આઇ": 1347,
      "વતી": 1348,
      "▁કાઢ": 1349,
      "બાદ": 1350,
      "▁કર્મ": 1351,
      "નિયા": 1352,
      "▁ગર્": 1353,
      "ખર": 1354,
      "▁આયો": 1355,
      "ઉન્ટ": 1356,
      "▁અગા": 1357,
      "ઓએ": 1358,
      "▁ઑ": 1359,
      "▁કહી": 1360,
      "▁આસ": 1361,
      "કુ": 1362,
      "ંકી": 1363,
      "▁કેમ": 1364,
      "▁રશ": 1365,
      "ાયક": 1366,
      "▁દેખા": 1367,
      "▁સંપ": 1368,
      "▁રમ": 1369,
      "▁ટૂ": 1370,
      "ફે": 1371,
      "▁કરવી": 1372,
      "ફા": 1373,
      "▁પ્રકાશ": 1374,
      "▁ખોરાક": 1375,
      "નંદ": 1376,
      "કારે": 1377,
      "▁અભ્યા": 1378,
      "ાયેલા": 1379,
      "▁ફરિયા": 1380,
      "▁અગાઉ": 1381,
      "વન": 1382,
      "મંત્રી": 1383,
      "મર": 1384,
      "▁ગંભ": 1385,
      "ંપ": 1386,
      "▁શેર": 1387,
      "▁વન": 1388,
      "▁ફોટો": 1389,
      "▁પદ": 1390,
      "શક": 1391,
      "▁ઝડપ": 1392,
      "▁સ્વાદ": 1393,
      "ાઇન": 1394,
      "▁ઓળખ": 1395,
      "સ્પિટ": 1396,
      "વિક": 1397,
      "▁લોકપ્રિય": 1398,
      "▁પૂર્વ": 1399,
      "▁ઘરે": 1400,
      "ાયેલ": 1401,
      "▁કિંમત": 1402,
      "ટ્": 1403,
      "▁ગંભીર": 1404,
      "ઠી": 1405,
      "▁દાખ": 1406,
      "▁જન": 1407,
      "▁સમાન": 1408,
      "▁તર": 1409,
      "તિહા": 1410,
      "તાવ": 1411,
      "▁ગરમ": 1412,
      "▁ઓપ": 1413,
      "રૂપ": 1414,
      "▁મિનિટ": 1415,
      "▁વાંચ": 1416,
      "▁આશ": 1417,
      "▁બ્રા": 1418,
      "ક્શન": 1419,
      "▁આપવા": 1420,
      "▁ઉચ્ચ": 1421,
      "ેત્ર": 1422,
      "▁બનાવે": 1423,
      "લની": 1424,
      "▁આગામી": 1425,
      "▁વધી": 1426,
      "▁બહુ": 1427,
      "▁પ્રદેશ": 1428,
      "▁મુંબ": 1429,
      "લર": 1430,
      "▁આંખ": 1431,
      "▁પત્ની": 1432,
      "▁છોડ": 1433,
      "▁શ્રી": 1434,
      "▁ડિઝ": 1435,
      "ૃત્તિ": 1436,
      "▁મૂક": 1437,
      "ળવા": 1438,
      "▁મન": 1439,
      "▁કરવાનું": 1440,
      "▁ઉલ્લે": 1441,
      "▁કોર્ટ": 1442,
      "▁ઉલ્લેખ": 1443,
      "▁હોસ્પિટ": 1444,
      "▁કર્મચ": 1445,
      "ત્ત": 1446,
      "લાય": 1447,
      "▁જેને": 1448,
      "દ્ધિ": 1449,
      "▁વજન": 1450,
      "મ્બ": 1451,
      "રિકા": 1452,
      "સના": 1453,
      "▁ચાલી": 1454,
      "દ્ર": 1455,
      "▁પટેલ": 1456,
      "▁મીડિયા": 1457,
      "▁રહ્યાં": 1458,
      "▁કિસ્સામાં": 1459,
      "▁પ્રાપ્ત": 1460,
      "ઝા": 1461,
      "▁અમેરિકા": 1462,
      "કારા": 1463,
      "▁કોર્": 1464,
      "ત્રા": 1465,
      "પુર": 1466,
      "▁ફી": 1467,
      "▁મહા": 1468,
      "▁આઈ": 1469,
      "▁હાર્": 1470,
      "ણું": 1471,
      "િટી": 1472,
      "▁મેળવી": 1473,
      "ગ્ય": 1474,
      "▁મિશ": 1475,
      "▁ખરા": 1476,
      "રાત": 1477,
      "▁આનંદ": 1478,
      "▁નંબર": 1479,
      "▁જેવી": 1480,
      "▁તેવી": 1481,
      "▁પસંદગી": 1482,
      "▁કામગીરી": 1483,
      "ખો": 1484,
      "▁સભ": 1485,
      "▁દર્દી": 1486,
      "ાવવામાં": 1487,
      "▁મુલાકાત": 1488,
      "સની": 1489,
      "દ્ધતિ": 1490,
      "▁નુકસાન": 1491,
      "▁ઢ": 1492,
      "▁સંપૂર્ણપણે": 1493,
      "ઉન્ડ": 1494,
      "▁જુઓ": 1495,
      "▁પૂર્ણ": 1496,
      "ુર": 1497,
      "▁શૈ": 1498,
      "▁સંસ્થા": 1499,
      "▁બેન્": 1500,
      "▁જણા": 1501,
      "વાળા": 1502,
      "ંડી": 1503,
      "વતા": 1504,
      "▁પૂછ": 1505,
      "▁જીત": 1506,
      "▁પુન": 1507,
      "▁કેટલીક": 1508,
      "▁મહાન": 1509,
      "▁રોકા": 1510,
      "▁પહોંચી": 1511,
      "દર્શન": 1512,
      "કારક": 1513,
      "▁ગયું": 1514,
      "સભા": 1515,
      "▁હી": 1516,
      "વાથી": 1517,
      "▁છોડી": 1518,
      "▁પદ્ધતિ": 1519,
      "▁લક્ષણો": 1520,
      "▁વિદેશ": 1521,
      "▁અંદર": 1522,
      "▁રુ": 1523,
      "▁વિષ": 1524,
      "▁જઈ": 1525,
      "વર્": 1526,
      "▁વિસ્તારમાં": 1527,
      "ઘા": 1528,
      "સન": 1529,
      "ૂટ": 1530,
      "▁વિના": 1531,
      "મન": 1532,
      "ધિ": 1533,
      "્રેડ": 1534,
      "▁મજબૂત": 1535,
      "▁સ્તર": 1536,
      "▁વસ": 1537,
      "ડવામાં": 1538,
      "▁આરોપી": 1539,
      "▁નાની": 1540,
      "▁સિસ્ટમ": 1541,
      "ૂતો": 1542,
      "સ્થિતિ": 1543,
      "▁શરૂઆત": 1544,
      "▁અડ": 1545,
      "ડું": 1546,
      "▁પક": 1547,
      "▁હવા": 1548,
      "રબી": 1549,
      "▁ચલા": 1550,
      "▁કી": 1551,
      "▁બ્ર": 1552,
      "▁સાં": 1553,
      "ટેડ": 1554,
      "ર્તા": 1555,
      "▁આપ્યો": 1556,
      "દારી": 1557,
      "પ્સ": 1558,
      "▁લાલ": 1559,
      "▁વર્ષની": 1560,
      "▁ઝા": 1561,
      "▁આવેલા": 1562,
      "▁ક્ષેત્ર": 1563,
      "▁ફરિયાદ": 1564,
      "આરી": 1565,
      "▁સવારે": 1566,
      "ચ્છા": 1567,
      "વાહી": 1568,
      "▁ઝડપી": 1569,
      "▁ઉદ": 1570,
      "▁પસાર": 1571,
      "શ્ચ": 1572,
      "▁મર": 1573,
      "જનો": 1574,
      "▁પ્રકારની": 1575,
      "▁હોવાનું": 1576,
      "રસ": 1577,
      "▁શાળા": 1578,
      "ષ્ય": 1579,
      "▁પ્રકારના": 1580,
      "▁રકમ": 1581,
      "▁સરકારે": 1582,
      "તંત્ર": 1583,
      "િત્રો": 1584,
      "▁સ્ટા": 1585,
      "▁સ્વી": 1586,
      "▁ભગ": 1587,
      "▁લેવામાં": 1588,
      "▁જોડા": 1589,
      "વુ": 1590,
      "જ્ઞાન": 1591,
      "▁અભ્યાસ": 1592,
      "▁મૃત્યુ": 1593,
      "શું": 1594,
      "સ્ટર": 1595,
      "▁લીધો": 1596,
      "▁વિશા": 1597,
      "▁નહિ": 1598,
      "▁ક્યાં": 1599,
      "▁એકા": 1600,
      "▁શરીર": 1601,
      "▁રોડ": 1602,
      "▁મહત્વપૂર્ણ": 1603,
      "▁બાકી": 1604,
      "ારંભ": 1605,
      "▁પ્રમાણે": 1606,
      "▁ગ્રાહ": 1607,
      "▁એવા": 1608,
      "▁તેલ": 1609,
      "ડાં": 1610,
      "▁વેપ": 1611,
      "▁ઉપકરણ": 1612,
      "▁તબ": 1613,
      "▁અર્": 1614,
      "▁ઇન્ડ": 1615,
      "મના": 1616,
      "▁રન": 1617,
      "▁વાસ્ત": 1618,
      "ષા": 1619,
      "▁દૂ": 1620,
      "▁પાસેથી": 1621,
      "▁કાર્યવાહી": 1622,
      "▁અભિને": 1623,
      "▁ખરાબ": 1624,
      "▁આત": 1625,
      "▁સાંભ": 1626,
      "▁વિભાગ": 1627,
      "▁આસપાસ": 1628,
      "લય": 1629,
      "▁જમીન": 1630,
      "▁મેળવવા": 1631,
      "▁ખાતરી": 1632,
      "મ્સ": 1633,
      "▁દ્ર": 1634,
      "મુખ": 1635,
      "▁ખેડૂતો": 1636,
      "▁વહે": 1637,
      "▁આવતા": 1638,
      "ફ્ટ": 1639,
      "▁પૂરી": 1640,
      "▁કૃ": 1641,
      "▁નોકરી": 1642,
      "▁પરિસ્થિતિ": 1643,
      "▁તેનું": 1644,
      "ન્ન": 1645,
      "▁અરજી": 1646,
      "▁પરથી": 1647,
      "સંગ": 1648,
      "▁શાંત": 1649,
      "▁સમી": 1650,
      "ૂલ": 1651,
      "િકલ": 1652,
      "▁ઇન્ટ": 1653,
      "▁સપા": 1654,
      "દ્ધા": 1655,
      "▁રાજકો": 1656,
      "બ્ર": 1657,
      "ષ્ટ્રીય": 1658,
      "▁મુશ્કેલ": 1659,
      "▁શક્તિ": 1660,
      "ેદ": 1661,
      "▁પ્રતિક": 1662,
      "▁હાલમાં": 1663,
      "▁ત્રી": 1664,
      "▁પ્રારંભ": 1665,
      "રવ": 1666,
      "િયર": 1667,
      "▁નેતા": 1668,
      "▁યુન": 1669,
      "▁એજ": 1670,
      "▁માંથી": 1671,
      "▁ભી": 1672,
      "▁બજાર": 1673,
      "ર્વ": 1674,
      "▁સત્તા": 1675,
      "▁સ્થાપ": 1676,
      "રેન્દ્ર": 1677,
      "▁દાખલ": 1678,
      "▁વીડિયો": 1679,
      "ઉટ": 1680,
      "▁દિવસો": 1681,
      "▁મિલ": 1682,
      "પ્રધાન": 1683,
      "મિક": 1684,
      "▁તી": 1685,
      "▁ખરે": 1686,
      "સ્તી": 1687,
      "લાં": 1688,
      "કારાત્મક": 1689,
      "▁કરતી": 1690,
      "▁આરામ": 1691,
      "▁આયોજન": 1692,
      "ન્સી": 1693,
      "▁સ્થાનિક": 1694,
      "▁કૉ": 1695,
      "આઈ": 1696,
      "▁લાગુ": 1697,
      "▁ધ્યાનમાં": 1698,
      "પ્રદ": 1699,
      "▁માળ": 1700,
      "▁ગેર": 1701,
      "▁કરીએ": 1702,
      "પાત્ર": 1703,
      "▁ઘરમાં": 1704,
      "▁ફેરફ": 1705,
      "પતિ": 1706,
      "▁વાયર": 1707,
      "▁મં": 1708,
      "▁કિલો": 1709,
      "▁થોડી": 1710,
      "▁રોકાણ": 1711,
      "▁પ્રવ": 1712,
      "લોજી": 1713,
      "▁કાળ": 1714,
      "▁જ્": 1715,
      "પૂર્વક": 1716,
      "ઠવા": 1717,
      "▁વેચા": 1718,
      "▁રાખો": 1719,
      "ઝન": 1720,
      "▁ખરેખર": 1721,
      "ભાઇ": 1722,
      "▁કેસ": 1723,
      "▁ખબર": 1724,
      "▁છોકરી": 1725,
      "▁ઘટાડો": 1726,
      "▁વ્": 1727,
      "▁વિરોધ": 1728,
      "ઓનો": 1729,
      "▁મનો": 1730,
      "▁સમયમાં": 1731,
      "▁ન્યૂ": 1732,
      "▁આકર્ષ": 1733,
      "▁શબ્દ": 1734,
      "ન્ચ": 1735,
      "▁ફોન": 1736,
      "▁તાલુ": 1737,
      "▁સ્ના": 1738,
      "વીને": 1739,
      "આર": 1740,
      "ુલ": 1741,
      "▁મામલે": 1742,
      "ટના": 1743,
      "▁એપ": 1744,
      "કમાં": 1745,
      "▁ભૂમ": 1746,
      "ગાર": 1747,
      "▁રાહુ": 1748,
      "▁વિશાળ": 1749,
      "ષ્ટિ": 1750,
      "▁તાપ": 1751,
      "▁ઉમેદ": 1752,
      "▁સેન્ટ": 1753,
      "▁રાખે": 1754,
      "વિધા": 1755,
      "મની": 1756,
      "▁અધિકારી": 1757,
      "કોને": 1758,
      "▁ઉકે": 1759,
      "▁આજ": 1760,
      "▁પાર": 1761,
      "▁સુરક્ષા": 1762,
      "વાળી": 1763,
      "ભૂત": 1764,
      "▁આદ": 1765,
      "▁ટ્": 1766,
      "▁પૈસા": 1767,
      "▁અમારા": 1768,
      "▁એવો": 1769,
      "▁મેં": 1770,
      "▁પતિ": 1771,
      "▁ઉત્તર": 1772,
      "▁કુદર": 1773,
      "▁તારી": 1774,
      "▁જાહેરાત": 1775,
      "▁આત્": 1776,
      "િયે": 1777,
      "▁નહો": 1778,
      "▁બનાવવામાં": 1779,
      "▁માણસ": 1780,
      "▁દીધી": 1781,
      "ળું": 1782,
      "લબ્": 1783,
      "▁તાલુકા": 1784,
      "રિયા": 1785,
      "શ્મી": 1786,
      "▁કદા": 1787,
      "▁ડાય": 1788,
      "▁વધારા": 1789,
      "▁મુંબઈ": 1790,
      "સ્ટે": 1791,
      "▁બિન": 1792,
      "કેટ": 1793,
      "▁બદલ": 1794,
      "ડીને": 1795,
      "વ્ય": 1796,
      "▁કદ": 1797,
      "▁હતુ": 1798,
      "મારી": 1799,
      "▁ફ્રે": 1800,
      "▁કદાચ": 1801,
      "ક્રિય": 1802,
      "શિયલ": 1803,
      "ધન": 1804,
      "▁વસ્તુઓ": 1805,
      "વેદન": 1806,
      "▁રાત્ર": 1807,
      "▁ઉપલબ્": 1808,
      "▁દેખાવ": 1809,
      "ાર્થ": 1810,
      "▁મોડે": 1811,
      "▁કલ": 1812,
      "▁ગ્": 1813,
      "રલ": 1814,
      "ોને": 1815,
      "▁દબા": 1816,
      "▁એના": 1817,
      "▁ડ્રા": 1818,
      "▁લાગી": 1819,
      "▁ઉં": 1820,
      "વાદી": 1821,
      "ઝી": 1822,
      "▁વાન": 1823,
      "ૂળ": 1824,
      "▁બધું": 1825,
      "▁સારું": 1826,
      "▁દુનિયા": 1827,
      "દારો": 1828,
      "કની": 1829,
      "▁થતા": 1830,
      "▁ભૂમિકા": 1831,
      "▁જાણો": 1832,
      "▁હોવાથી": 1833,
      "▁ભગવાન": 1834,
      "ઝને": 1835,
      "▁જિ": 1836,
      "▁ધીમે": 1837,
      "▁કમા": 1838,
      "▁લીધી": 1839,
      "▁કાર્ડ": 1840,
      "▁માલિક": 1841,
      "ક્ષિ": 1842,
      "▁શ્રેણી": 1843,
      "▁સૂર": 1844,
      "▁વિસ્તારો": 1845,
      "▁ત્વ": 1846,
      "▁બાંધ": 1847,
      "▁અક": 1848,
      "▁ડૉ": 1849,
      "▁પં": 1850,
      "▁ગરમી": 1851,
      "ર્ગ": 1852,
      "▁પત્ર": 1853,
      "▁ઓછ": 1854,
      "▁પોતે": 1855,
      "▁હકીકત": 1856,
      "▁સ્થિત": 1857,
      "ફર": 1858,
      "▁ઉજ": 1859,
      "▁ઉપલબ્ધ": 1860,
      "▁સુવિધા": 1861,
      "▁દાર": 1862,
      "▁રોક": 1863,
      "▁જાન": 1864,
      "▁ઇન": 1865,
      "તના": 1866,
      "▁નોટ": 1867,
      "▁સફળતા": 1868,
      "▁શિક્ષણ": 1869,
      "ક્કા": 1870,
      "▁વિધાન": 1871,
      "દરા": 1872,
      "▁જોખ": 1873,
      "દય": 1874,
      "ટું": 1875,
      "ંગા": 1876,
      "▁બીજ": 1877,
      "▁રહેવા": 1878,
      "▁ભારતમાં": 1879,
      "▁બાર": 1880,
      "▁નાખ": 1881,
      "▁એક્સ": 1882,
      "▁ખુબ": 1883,
      "▁ગુણવ": 1884,
      "ચો": 1885,
      "વારો": 1886,
      "▁સફળ": 1887,
      "▁દૂધ": 1888,
      "વડ": 1889,
      "▁સિવાય": 1890,
      "▁મીઠ": 1891,
      "▁સમુ": 1892,
      "▁ચમ": 1893,
      "▁ત્વચા": 1894,
      "▁પંચ": 1895,
      "ંતા": 1896,
      "▁જાણવા": 1897,
      "▁દેશમાં": 1898,
      "જિત": 1899,
      "▁સપાટી": 1900,
      "▁રાષ્ટ્ર": 1901,
      "▁સ્પર્": 1902,
      "કિંગ": 1903,
      "ક્ષિત": 1904,
      "▁ડિઝાઇન": 1905,
      "▁ફિ": 1906,
      "માણ": 1907,
      "▁ગુણવત્તા": 1908,
      "▁કોલે": 1909,
      "▁રસો": 1910,
      "▁પ્રભાવ": 1911,
      "▁આંક": 1912,
      "▁ક્યારેય": 1913,
      "▁પ્રવેશ": 1914,
      "▁એક્": 1915,
      "▁વિજય": 1916,
      "▁નાગર": 1917,
      "ૂહ": 1918,
      "ન્ને": 1919,
      "▁કાશ્મી": 1920,
      "શુ": 1921,
      "રેશન": 1922,
      "ાયું": 1923,
      "્રોલ": 1924,
      "▁વારં": 1925,
      "▁સમીક્ષા": 1926,
      "▁પ્રમાણ": 1927,
      "તરા": 1928,
      "▁હત્યા": 1929,
      "સ્ત્ર": 1930,
      "▁ઝડપથી": 1931,
      "▁વારંવાર": 1932,
      "▁હાજર": 1933,
      "સીઓ": 1934,
      "ારણ": 1935,
      "▁બળ": 1936,
      "▁ચહે": 1937,
      "▁સમાજ": 1938,
      "▁વ્યવસ્થા": 1939,
      "▁મૂલ": 1940,
      "▁ફેલા": 1941,
      "રાજ": 1942,
      "▁માગ": 1943,
      "▁થવા": 1944,
      "શાન": 1945,
      "▁એન્ડ": 1946,
      "▁બદલે": 1947,
      "▁પૃ": 1948,
      "▁શાહ": 1949,
      "▁સદી": 1950,
      "▁અટક": 1951,
      "▁સ્થળ": 1952,
      "ંપરા": 1953,
      "▁ખરીદ": 1954,
      "▁પ્રશ્ન": 1955,
      "પક": 1956,
      "▁વડાપ્રધાન": 1957,
      "ગ્રામ": 1958,
      "▁આવક": 1959,
      "▁ચુ": 1960,
      "▁મૂકી": 1961,
      "સભ": 1962,
      "ંગ્": 1963,
      "▁છબી": 1964,
      "▁આધારે": 1965,
      "ડમાં": 1966,
      "▁નું": 1967,
      "દર્શ": 1968,
      "રુષ": 1969,
      "▁શિવ": 1970,
      "સ્વી": 1971,
      "▁મકા": 1972,
      "▁સિંહ": 1973,
      "સ્ટો": 1974,
      "શનલ": 1975,
      "▁આર્થ": 1976,
      "▁પ્રોજે": 1977,
      "▁મંત્રી": 1978,
      "▁શ્ર": 1979,
      "ક્ષમ": 1980,
      "▁ત્યારબાદ": 1981,
      "ડની": 1982,
      "ુનિક": 1983,
      "▁ખેલા": 1984,
      "▁ઘા": 1985,
      "▁હાઈ": 1986,
      "▁તરફથી": 1987,
      "▁પોસ્ટ": 1988,
      "▁અનુભવ": 1989,
      "ધે": 1990,
      "▁કારણો": 1991,
      "▁મહત્": 1992,
      "▁છુ": 1993,
      "▁ફાઇ": 1994,
      "▁બેંક": 1995,
      "▁પરંપરા": 1996,
      "▁અલબ": 1997,
      "▁ઉત્પાદનો": 1998,
      "▁ક્યારેક": 1999,
      "▁દેખાય": 2000,
      "લિત": 2001,
      "વાઈ": 2002,
      "▁પહેલી": 2003,
      "▁તાજે": 2004,
      "બિ": 2005,
      "▁શૈલી": 2006,
      "▁ટેક": 2007,
      "▁અના": 2008,
      "▁યુદ્ધ": 2009,
      "▁ચાર્": 2010,
      "▁રસ્તા": 2011,
      "▁વિધાનસભા": 2012,
      "જિ": 2013,
      "સિંહ": 2014,
      "▁પિ": 2015,
      "▁બોર્ડ": 2016,
      "▁અઠવા": 2017,
      "▁મુશ્કેલી": 2018,
      "ડલ": 2019,
      "નલ": 2020,
      "▁પુસ્ત": 2021,
      "▁તૈયારી": 2022,
      "▁ફરીથી": 2023,
      "▁શોધી": 2024,
      "▁નરેન્દ્ર": 2025,
      "▁યુવાન": 2026,
      "▁સફેદ": 2027,
      "ભી": 2028,
      "તાથી": 2029,
      "▁સાબ": 2030,
      "▁અલબત્ત": 2031,
      "▁પ્રમુખ": 2032,
      "લ્ટ": 2033,
      "▁ક્લ": 2034,
      "▁માનવામાં": 2035,
      "▁વાનગી": 2036,
      "▁નોંધપાત્ર": 2037,
      "▁મોબા": 2038,
      "▁ક્રિક": 2039,
      "લિયા": 2040,
      "▁મેળવ": 2041,
      "▁અંદા": 2042,
      "▁કૌ": 2043,
      "▁પ્રાણી": 2044,
      "▁વ્યક્તિગત": 2045,
      "▁મિશ્રણ": 2046,
      "▁મોટો": 2047,
      "પાલ": 2048,
      "▁થતાં": 2049,
      "▁રહેલા": 2050,
      "ક્ષણિક": 2051,
      "જૂરી": 2052,
      "સુ": 2053,
      "▁આરોગ્ય": 2054,
      "▁જૂના": 2055,
      "▁સાત": 2056,
      "કામ": 2057,
      "▁નદી": 2058,
      "▁પ્રદર્શન": 2059,
      "▁હાઇ": 2060,
      "▁જાળ": 2061,
      "શીલ": 2062,
      "▁સક્રિય": 2063,
      "▁ફિલ્મો": 2064,
      "▁સલાહ": 2065,
      "▁ડિગ્રી": 2066,
      "▁ચંદ": 2067,
      "સ્ટ્રે": 2068,
      "▁બધી": 2069,
      "▁ફળ": 2070,
      "▁રામ": 2071,
      "▁આધુનિક": 2072,
      "▁જગ્યાએ": 2073,
      "▁તંત્ર": 2074,
      "▁આવતી": 2075,
      "▁લોકસ": 2076,
      "▁પુરુષ": 2077,
      "▁જેની": 2078,
      "▁કુદરતી": 2079,
      "▁સામેલ": 2080,
      "▁ગઇ": 2081,
      "ફિક": 2082,
      "▁વેચાણ": 2083,
      "▁ઔ": 2084,
      "▁લોકોએ": 2085,
      "▁લાગણી": 2086,
      "▁રાહુલ": 2087,
      "પકડ": 2088,
      "▁ભલા": 2089,
      "▁મગ": 2090,
      "▁રમત": 2091,
      "મેન": 2092,
      "▁રેડ": 2093,
      "▁દિશા": 2094,
      "▁આર્થિક": 2095,
      "▁વ્યક્ત": 2096,
      "▁રેકો": 2097,
      "ખ્": 2098,
      "▁વર્ણ": 2099,
      "▁સંપર્ક": 2100,
      "▁એડ": 2101,
      "▁તરત": 2102,
      "▁ખેલાડી": 2103,
      "▁અમેરિક": 2104,
      "▁ડોલ": 2105,
      "▁ક્ષમતા": 2106,
      "પરી": 2107,
      "સ્મા": 2108,
      "રું": 2109,
      "▁સ્ત": 2110,
      "▁ધરપકડ": 2111,
      "ન્ય": 2112,
      "ંદર": 2113,
      "▁ઇચ્છ": 2114,
      "▁આધારિત": 2115,
      "કાળ": 2116,
      "▁બતા": 2117,
      "▁રસપ્રદ": 2118,
      "▁પાકિસ્તાન": 2119,
      "▁હુમલા": 2120,
      "▁સ્ટેશન": 2121,
      "▁રાખવામાં": 2122,
      "▁મીટર": 2123,
      "▁ઘણો": 2124,
      "લાઇ": 2125,
      "▁મિત્રો": 2126,
      "▁સૈ": 2127,
      "▁ખસે": 2128,
      "▁મહારા": 2129,
      "▁લોકસભા": 2130,
      "▁જાત": 2131,
      "રાય": 2132,
      "▁અક્ષ": 2133,
      "▁તળ": 2134,
      "▁મંગ": 2135,
      "▁ધારા": 2136,
      "▁તેજ": 2137,
      "▁વિભા": 2138,
      "▁સમર્થ": 2139,
      "▁ગુમા": 2140,
      "▁કાપ": 2141,
      "▁ચિંતા": 2142,
      "▁વિકલ્પ": 2143,
      "ઠો": 2144,
      "▁હોવું": 2145,
      "▁તાપમાન": 2146,
      "▁રવિ": 2147,
      "▁બસ": 2148,
      "▁પ્રધાન": 2149,
      "ઇન્ટ": 2150,
      "▁અત્યાર": 2151,
      "▁રેકોર્ડ": 2152,
      "▁કહેવામાં": 2153,
      "રોમાં": 2154,
      "▁કાયદા": 2155,
      "િત્વ": 2156,
      "▁ટેસ્ટ": 2157,
      "▁પ્લે": 2158,
      "▁વિરુ": 2159,
      "▁પ્રિ": 2160,
      "▁વિશેષ": 2161,
      "▁મુખ્યમંત્રી": 2162,
      "▁પરીક્ષા": 2163,
      "▁દક્ષિ": 2164,
      "▁અનુભ": 2165,
      "વાનગી": 2166,
      "▁સુધીમાં": 2167,
      "▁કરાવ": 2168,
      "▁નહી": 2169,
      "▁પ્રિય": 2170,
      "▁ભય": 2171,
      "▁ઘો": 2172,
      "▁દારૂ": 2173,
      "▁એન્ટ": 2174,
      "▁પુત્ર": 2175,
      "▁શિક્ષ": 2176,
      "▁ગ્રે": 2177,
      "▁સાધનો": 2178,
      "▁લઇને": 2179,
      "રોજ": 2180,
      "▁મ્યુ": 2181,
      "ક્ટો": 2182,
      "▁વાસ્તવિક": 2183,
      "▁શહેર": 2184,
      "સેસ": 2185,
      "▁શક્યતા": 2186,
      "▁જણાવી": 2187,
      "▁શકતા": 2188,
      "▁લાઈ": 2189,
      "▁પરવાનગી": 2190,
      "▁પ્રવૃત્તિ": 2191,
      "▁ગુજરાતમાં": 2192,
      "ન્ટે": 2193,
      "▁પ્રય": 2194,
      "▁ખેંચ": 2195,
      "▁સામનો": 2196,
      "▁લોકોની": 2197,
      "▁મંદિર": 2198,
      "▁કાળજી": 2199,
      "▁યાદી": 2200,
      "▁રાશિ": 2201,
      "ોની": 2202,
      "▁ગ્રી": 2203,
      "ન્સર": 2204,
      "▁રહેતા": 2205,
      "▁પ્રયત્": 2206,
      "▁મંજૂરી": 2207,
      "▁સોશિયલ": 2208,
      "્યોગ": 2209,
      "▁માનવ": 2210,
      "▁સ્મા": 2211,
      "તરમાં": 2212,
      "▁વળ": 2213,
      "▁રાખવા": 2214,
      "▁ક્રિયા": 2215,
      "ન્ડર": 2216,
      "▁રાખી": 2217,
      "િવર્સ": 2218,
      "ટની": 2219,
      "ડામાં": 2220,
      "નર": 2221,
      "▁આશા": 2222,
      "▁બહે": 2223,
      "▁બન્ને": 2224,
      "▁તુ": 2225,
      "▁થા": 2226,
      "ડક": 2227,
      "ઉન": 2228,
      "સ્કો": 2229,
      "▁સાફ": 2230,
      "▁સરકારી": 2231,
      "્રહ": 2232,
      "▁આર્": 2233,
      "▁અવા": 2234,
      "▁કંઈક": 2235,
      "▁અંતિમ": 2236,
      "▁હોવી": 2237,
      "▁ભાષા": 2238,
      "▁રિપોર્ટ": 2239,
      "▁ઉકેલ": 2240,
      "▁પગલે": 2241,
      "▁રાત્રે": 2242,
      "ૂક": 2243,
      "▁જતા": 2244,
      "▁મંદિ": 2245,
      "▁મળ્યા": 2246,
      "ટિક": 2247,
      "▁આપણા": 2248,
      "▁વલ": 2249,
      "▁મળ્યો": 2250,
      "▁મોટાભાગ": 2251,
      "▁કાન": 2252,
      "▁આદેશ": 2253,
      "▁ઇતિહા": 2254,
      "▁અમને": 2255,
      "▁વ્યવસાય": 2256,
      "▁જામ": 2257,
      "ંદુ": 2258,
      "▁પાછા": 2259,
      "▁વર્ષો": 2260,
      "માનો": 2261,
      "ઈલ": 2262,
      "▁નાણા": 2263,
      "▁કર્મચારી": 2264,
      "ભર": 2265,
      "મતી": 2266,
      "સ્તો": 2267,
      "▁શહેરમાં": 2268,
      "▁આંતર": 2269,
      "▁નિયમો": 2270,
      "રાશ": 2271,
      "ક્ષે": 2272,
      "ટિલ": 2273,
      "ંત્રણ": 2274,
      "▁કાપી": 2275,
      "▁ટુક": 2276,
      "વારી": 2277,
      "▁સંબંધિત": 2278,
      "સવી": 2279,
      "▁વય": 2280,
      "▁આવેલ": 2281,
      "▁હાજરી": 2282,
      "▁ચુક": 2283,
      "▁પ્રોજેક્ટ": 2284,
      "ભાર": 2285,
      "▁બિલ": 2286,
      "▁સ્વરૂપ": 2287,
      "▁વર્ષમાં": 2288,
      "▁અસરકારક": 2289,
      "▁ધર્મ": 2290,
      "▁આકાર": 2291,
      "▁આંતરિક": 2292,
      "▁લગા": 2293,
      "કરા": 2294,
      "▁રેલ": 2295,
      "▁સ્માર્ટ": 2296,
      "▁પીડા": 2297,
      "▁દૃ": 2298,
      "▁ગત": 2299,
      "▁વેબ": 2300,
      "▁કમિ": 2301,
      "▁ઉપયોગી": 2302,
      "આઇ": 2303,
      "▁પાસ": 2304,
      "▁સાવ": 2305,
      "▁ગૂ": 2306,
      "▁રૂમ": 2307,
      "▁કબ": 2308,
      "શાળી": 2309,
      "▁કહેવાય": 2310,
      "ટરી": 2311,
      "▁કાર્યક્રમ": 2312,
      "▁શિયા": 2313,
      "▁પ્રતિબંધ": 2314,
      "દિક": 2315,
      "▁ટાઇ": 2316,
      "▁સુપ": 2317,
      "▁કરવાથી": 2318,
      "▁ટોચ": 2319,
      "▁માછ": 2320,
      "▁ફેબ્ર": 2321,
      "ગેરે": 2322,
      "ર્મો": 2323,
      "▁ગી": 2324,
      "▁વૃક્ષ": 2325,
      "▁તસવી": 2326,
      "▁સંકે": 2327,
      "▁દેવામાં": 2328,
      "ંડો": 2329,
      "▁થયેલા": 2330,
      "▁કોલ": 2331,
      "લેક": 2332,
      "▁ફરજ": 2333,
      "▁અકસ્મા": 2334,
      "જિન": 2335,
      "▁માંગો": 2336,
      "▁વધાર": 2337,
      "▁વિચારો": 2338,
      "ઝો": 2339,
      "▁બિઝને": 2340,
      "▁ભાજપના": 2341,
      "▁શીખ": 2342,
      "▁સભ્યો": 2343,
      "▁સંખ્યામાં": 2344,
      "▁ભાઈ": 2345,
      "▁ગૌ": 2346,
      "▁થયેલ": 2347,
      "▁તત્": 2348,
      "▁વિશ્વાસ": 2349,
      "ૃદય": 2350,
      "ગઢ": 2351,
      "▁વિરુદ્ધ": 2352,
      "▁વાહ": 2353,
      "▁લીધા": 2354,
      "▁માછલી": 2355,
      "તની": 2356,
      "▁રણ": 2357,
      "▁એને": 2358,
      "▁આવું": 2359,
      "કાં": 2360,
      "ફોન": 2361,
      "▁તેનાથી": 2362,
      "▁આખ": 2363,
      "▁પ્રજા": 2364,
      "▁ઓછામાં": 2365,
      "▁સમયગા": 2366,
      "ાયેલી": 2367,
      "▁દેશના": 2368,
      "જીના": 2369,
      "▁પૈકી": 2370,
      "▁તારીખ": 2371,
      "▁દક્ષિણ": 2372,
      "▁સારો": 2373,
      "▁હૃદય": 2374,
      "▁સાંજે": 2375,
      "▁ક્રિકેટ": 2376,
      "ચન": 2377,
      "▁તદ્": 2378,
      "▁ધારાસભ": 2379,
      "▁સંત": 2380,
      "▁આશ્": 2381,
      "▁ડિસે": 2382,
      "▁બજે": 2383,
      "લેક્ટ": 2384,
      "▁આપશે": 2385,
      "▁વિવાદ": 2386,
      "▁ખુશ": 2387,
      "▁શબ્દો": 2388,
      "▁એક્ટ": 2389,
      "ંસા": 2390,
      "▁સાબિત": 2391,
      "▁જમા": 2392,
      "▁રક્ત": 2393,
      "▁સંગીત": 2394,
      "▁યુવતી": 2395,
      "ષ્ણ": 2396,
      "યુક્ત": 2397,
      "દુ": 2398,
      "▁બ્રે": 2399,
      "ક્રો": 2400,
      "▁ફોર્મ": 2401,
      "લ્લી": 2402,
      "▁નજર": 2403,
      "▁સંચા": 2404,
      "ક્ષી": 2405,
      "▁સૂર્ય": 2406,
      "▁એકવાર": 2407,
      "▁વર્ત": 2408,
      "▁ઈન્ડ": 2409,
      "▁જીવનમાં": 2410,
      "▁એકાઉન્ટ": 2411,
      "▁દબાણ": 2412,
      "▁આપ્યું": 2413,
      "▁સેટ": 2414,
      "▁યોજ": 2415,
      "ઢી": 2416,
      "▁વર્લ્ડ": 2417,
      "▁અનુક": 2418,
      "▁જુદા": 2419,
      "▁ભવિ": 2420,
      "સ્ટિક": 2421,
      "▁ભવિષ્ય": 2422,
      "▁સક્ષમ": 2423,
      "▁ટુ": 2424,
      "▁નબ": 2425,
      "▁પાડ": 2426,
      "▁વિષય": 2427,
      "▁આઉટ": 2428,
      "ડાના": 2429,
      "▁પ્રમાણમાં": 2430,
      "વ્ર": 2431,
      "▁તદ્દન": 2432,
      "▁માધ": 2433,
      "કરો": 2434,
      "ંશ": 2435,
      "ુંગ": 2436,
      "ઉસ": 2437,
      "▁ઓગ": 2438,
      "▁વગેરે": 2439,
      "▁આવેલી": 2440,
      "▁પોતાને": 2441,
      "જનક": 2442,
      "▁હેતુ": 2443,
      "જિક": 2444,
      "▁નિષ્ણા": 2445,
      "▁નાણાં": 2446,
      "▁યોજા": 2447,
      "▁ભોજન": 2448,
      "▁મર્યા": 2449,
      "રીને": 2450,
      "▁પર્યા": 2451,
      "▁વિદ્યાર્થીઓ": 2452,
      "▁વપરાય": 2453,
      "ચું": 2454,
      "ંગી": 2455,
      "▁જટિલ": 2456,
      "▁મોક": 2457,
      "▁અત્યંત": 2458,
      "▁ઓન": 2459,
      "▁મોકલ": 2460,
      "જમાં": 2461,
      "▁પરિવ": 2462,
      "ઠ્": 2463,
      "▁શુભ": 2464,
      "અલ": 2465,
      "▁સબ": 2466,
      "મીટર": 2467,
      "શ્યક": 2468,
      "▁રશિયા": 2469,
      "ગ્રા": 2470,
      "▁થવાની": 2471,
      "▁નેટ": 2472,
      "▁માથા": 2473,
      "▁ઉના": 2474,
      "ઝર": 2475,
      "▁રાજકોટ": 2476,
      "▁વિસ્તારોમાં": 2477,
      "▁માંસ": 2478,
      "▁ભૂલ": 2479,
      "▁ભાગના": 2480,
      "્યે": 2481,
      "કને": 2482,
      "▁દુકા": 2483,
      "▁ઉઠ": 2484,
      "શ્વર": 2485,
      "▁પહેર": 2486,
      "▁પીએમ": 2487,
      "▁રજા": 2488,
      "▁ટીવી": 2489,
      "▁રશિયન": 2490,
      "▁જાણે": 2491,
      "એફ": 2492,
      "▁ધાર": 2493,
      "▁સંશો": 2494,
      "▁શ્વા": 2495,
      "મેલ": 2496,
      "▁નીતિ": 2497,
      "▁મિત્ર": 2498,
      "▁વર્ષના": 2499,
      "▁શાક": 2500,
      "▁સપ્તા": 2501,
      "▁ભલામણ": 2502,
      "▁થતી": 2503,
      "િયો": 2504,
      "▁ભાગે": 2505,
      "▁લોકોના": 2506,
      "▁યુનિવર્સ": 2507,
      "▁સંઘ": 2508,
      "▁જ્ઞ": 2509,
      "▁ટેક્સ": 2510,
      "કન": 2511,
      "હ્": 2512,
      "▁સામા": 2513,
      "▁કપડાં": 2514,
      "▁ફેરફાર": 2515,
      "▁કોણ": 2516,
      "▁સહાય": 2517,
      "▁નિયમિત": 2518,
      "્યાય": 2519,
      "▁ટિ": 2520,
      "લાઇન": 2521,
      "▁શનિ": 2522,
      "▁ડેટા": 2523,
      "▁બન્યા": 2524,
      "▁સ્વાસ્થ": 2525,
      "લીમ": 2526,
      "▁સમસ્યાઓ": 2527,
      "તાર": 2528,
      "્રિયા": 2529,
      "▁દેવ": 2530,
      "બીજા": 2531,
      "▁તીવ્ર": 2532,
      "▁મોદીએ": 2533,
      "▁ક્રો": 2534,
      "▁બિલ્": 2535,
      "▁ગણવામાં": 2536,
      "▁કોંગ્રેસના": 2537,
      "▁ઠા": 2538,
      "ભો": 2539,
      "▁એચ": 2540,
      "▁સમાચાર": 2541,
      "▁એકબીજા": 2542,
      "▁હુમલો": 2543,
      "▁પ્રત્ય": 2544,
      "▁રાષ્ટ્રીય": 2545,
      "▁અહે": 2546,
      "▁રોગો": 2547,
      "વાઇ": 2548,
      "▁સેના": 2549,
      "▁મેને": 2550,
      "ધ્": 2551,
      "▁જમ": 2552,
      "▁બોલી": 2553,
      "પાન": 2554,
      "▁ગણતરી": 2555,
      "ણીએ": 2556,
      "▁વાતાવ": 2557,
      "▁સંભા": 2558,
      "▁ઓફિસ": 2559,
      "ૂડ": 2560,
      "િયાત": 2561,
      "▁મળ્યું": 2562,
      "ચર્ય": 2563,
      "લિંગ": 2564,
      "▁મીઠું": 2565,
      "▁વાતાવરણ": 2566,
      "▁વિદેશી": 2567,
      "▁નવે": 2568,
      "ાર્ટ": 2569,
      "▁અમારી": 2570,
      "▁અત": 2571,
      "્યક્ષ": 2572,
      "▁જેટલા": 2573,
      "▁લાઇ": 2574,
      "▁એપ્": 2575,
      "▁રાખીને": 2576,
      "▁અચ": 2577,
      "▁ટેક્": 2578,
      "▁જાન્યુ": 2579,
      "સ્સો": 2580,
      "▁ચિત્ર": 2581,
      "▁ફ્લો": 2582,
      "▁જેઓ": 2583,
      "▁આવશ્યક": 2584,
      "▁સહે": 2585,
      "ાવ્યો": 2586,
      "▁વર્ગ": 2587,
      "▁ફિલ્મમાં": 2588,
      "ભુ": 2589,
      "ટુંબ": 2590,
      "સાઈ": 2591,
      "સ્થાન": 2592,
      "રાવ": 2593,
      "▁રાજકીય": 2594,
      "▁પાત્ર": 2595,
      "▁ટ્રાન્સ": 2596,
      "▁અધિકારીઓ": 2597,
      "▁ફુ": 2598,
      "▁ગમે": 2599,
      "▁મોરબી": 2600,
      "કટ": 2601,
      "▁સુરત": 2602,
      "▁સલ": 2603,
      "▁ઉમેરો": 2604,
      "ટલી": 2605,
      "▁ચોરી": 2606,
      "▁ગૃ": 2607,
      "▁અમુક": 2608,
      "પિ": 2609,
      "ાવત": 2610,
      "▁ડ્ર": 2611,
      "▁આશ્ચર્ય": 2612,
      "▁ચંદ્ર": 2613,
      "▁સ્વાસ્થ્ય": 2614,
      "જ્ઞા": 2615,
      "▁જયારે": 2616,
      "▁વાહન": 2617,
      "▁ઍ": 2618,
      "▁રક્ષણ": 2619,
      "▁નીક": 2620,
      "▁વૃદ્ધિ": 2621,
      "▁તબી": 2622,
      "▁માલ": 2623,
      "▁ભાગી": 2624,
      "▁બદલા": 2625,
      "▁મશી": 2626,
      "▁ક્લિક": 2627,
      "ડાની": 2628,
      "▁જાન્યુઆરી": 2629,
      "તાને": 2630,
      "લાસ": 2631,
      "થ્થ": 2632,
      "▁હજી": 2633,
      "▁અતિ": 2634,
      "▁મુદ્દા": 2635,
      "▁ગુરુ": 2636,
      "બુ": 2637,
      "▁બિઝનેસ": 2638,
      "વાલો": 2639,
      "▁એફ": 2640,
      "િકાર": 2641,
      "▁યુનિવર્સિટી": 2642,
      "▁ગોઠ": 2643,
      "▁અંતે": 2644,
      "સ્તાવે": 2645,
      "▁હોવાની": 2646,
      "▁સુખ": 2647,
      "▁સંસ્ક": 2648,
      "▁ધરી": 2649,
      "▁મતદાન": 2650,
      "▁હોસ્પિટલમાં": 2651,
      "નારી": 2652,
      "▁ઘટકો": 2653,
      "▁સ્ત્રીઓ": 2654,
      "▁સજા": 2655,
      "▁ચામ": 2656,
      "ભાવના": 2657,
      "▁દસ્તાવે": 2658,
      "▁શાંતિ": 2659,
      "▁ખાલી": 2660,
      "▁એની": 2661,
      "પોરે": 2662,
      "▁રેખા": 2663,
      "▁ઉત્તમ": 2664,
      "▁લીધે": 2665,
      "▁ભૂત": 2666,
      "ચિત": 2667,
      "▁અસા": 2668,
      "▁માટેની": 2669,
      "▁રાહત": 2670,
      "દાયક": 2671,
      "▁લાક": 2672,
      "▁કમ": 2673,
      "▁જૂથ": 2674,
      "કના": 2675,
      "▁કંપનીઓ": 2676,
      "ધાર": 2677,
      "▁છૂ": 2678,
      "ંધા": 2679,
      "▁અઠવાડિયા": 2680,
      "▁હોટેલ": 2681,
      "▁લાક્ષણિક": 2682,
      "ાર્ડ": 2683,
      "▁લાં": 2684,
      "▁ધરાવતા": 2685,
      "▁ઓફર": 2686,
      "શિષ્ટ": 2687,
      "ૂંટ": 2688,
      "લીઝ": 2689,
      "▁સરે": 2690,
      "▁સુપ્રીમ": 2691,
      "▁દંડ": 2692,
      "▁સાય": 2693,
      "▁યુરો": 2694,
      "▁મંગળ": 2695,
      "▁ઉજવણી": 2696,
      "▁આઠ": 2697,
      "▁પાલ": 2698,
      "▁માન્ય": 2699,
      "એલ": 2700,
      "ડર": 2701,
      "▁ખાનગી": 2702,
      "▁તબક્કા": 2703,
      "નોલોજી": 2704,
      "▁મુસા": 2705,
      "▁ઉલ્લેખનીય": 2706,
      "▁આશરે": 2707,
      "દાય": 2708,
      "વેર": 2709,
      "▁ગાય": 2710,
      "▁ખાંડ": 2711,
      "▁આરોપ": 2712,
      "▁બેઠકો": 2713,
      "▁ત્ર": 2714,
      "▁પરત": 2715,
      "▁બોલા": 2716,
      "▁નિવેદન": 2717,
      "▁પગલાં": 2718,
      "▁ગતિ": 2719,
      "ડોદરા": 2720,
      "▁ફટ": 2721,
      "▁બાબત": 2722,
      "▁દાવો": 2723,
      "▁કાળા": 2724,
      "▁બદલી": 2725,
      "ાવ્યા": 2726,
      "▁સરળતાથી": 2727,
      "▁રૃ": 2728,
      "▁અટ": 2729,
      "▁ચહેરા": 2730,
      "▁તાજેતરમાં": 2731,
      "▁બરા": 2732,
      "ણને": 2733,
      "▁એપ્ર": 2734,
      "▁ઘણાં": 2735,
      "▁વ્યવહાર": 2736,
      "▁ઈન્": 2737,
      "▁વીજ": 2738,
      "▁નગર": 2739,
      "▁સાઇટ": 2740,
      "▁દિવસમાં": 2741,
      "▁યાત્રા": 2742,
      "ન્યા": 2743,
      "▁પાડે": 2744,
      "ણામે": 2745,
      "▁જંગ": 2746,
      "▁પ્લાન્ટ": 2747,
      "▁કોર્ટે": 2748,
      "▁વધે": 2749,
      "▁જવાબદારી": 2750,
      "રાન": 2751,
      "▁જાણકારી": 2752,
      "▁ભજ": 2753,
      "▁નિષ્ફ": 2754,
      "▁રેલવે": 2755,
      "▁તાલીમ": 2756,
      "▁ફાયર": 2757,
      "▁વિગ": 2758,
      "ાવવાની": 2759,
      "▁કેટલા": 2760,
      "▁ઘણીવાર": 2761,
      "▁પાલન": 2762,
      "▁કહેવું": 2763,
      "▁પ્રગ": 2764,
      "▁દુર્": 2765,
      "ર્મા": 2766,
      "જની": 2767,
      "▁સોના": 2768,
      "લને": 2769,
      "વર્ક": 2770,
      "▁કપૂર": 2771,
      "સીપી": 2772,
      "▁શૂ": 2773,
      "▁સંકળ": 2774,
      "▁સુપર": 2775,
      "▁કયા": 2776,
      "ંતર": 2777,
      "▁નેતાઓ": 2778,
      "ડતા": 2779,
      "▁સ્ટી": 2780,
      "▁ડુંગ": 2781,
      "ડાઈ": 2782,
      "▁આતંક": 2783,
      "▁સરેરાશ": 2784,
      "▁ધા": 2785,
      "▁કાગ": 2786,
      "▁મસા": 2787,
      "▁પ્રશ્નો": 2788,
      "▁અમેરિકન": 2789,
      "▁પરિણામે": 2790,
      "▁અભિનેત્રી": 2791,
      "જારો": 2792,
      "તાના": 2793,
      "▁વડોદરા": 2794,
      "▁કરવાના": 2795,
      "▁વાતચી": 2796,
      "▁પ્રોડ": 2797,
      "▁જેટલી": 2798,
      "▁આત્મ": 2799,
      "▁ગુલા": 2800,
      "▁વાદ": 2801,
      "▁સોમ": 2802,
      "ડિંગ": 2803,
      "ઇક": 2804,
      "▁મોટે": 2805,
      "▁શકશે": 2806,
      "▁ગોળી": 2807,
      "▁બૉ": 2808,
      "▁મહિલાઓ": 2809,
      "ખંડ": 2810,
      "ર્જા": 2811,
      "▁દરિયા": 2812,
      "▁ઉદ્યોગ": 2813,
      "તાની": 2814,
      "▁મુદ્દે": 2815,
      "▁મુસાફ": 2816,
      "રીમાં": 2817,
      "▁વાતો": 2818,
      "▁સુધાર": 2819,
      "▁હૈ": 2820,
      "ંદા": 2821,
      "▁સપ્તાહ": 2822,
      "▁દીકરી": 2823,
      "મૂ": 2824,
      "▁સમીક્ષાઓ": 2825,
      "▁નીચેના": 2826,
      "▁આપો": 2827,
      "શય": 2828,
      "▁વિશિષ્ટ": 2829,
      "▁સપ્ટે": 2830,
      "તામાં": 2831,
      "▁ઇતિહાસ": 2832,
      "▁પેદા": 2833,
      "▁પુનઃ": 2834,
      "▁અંક": 2835,
      "▁જતાં": 2836,
      "▁અધ્યક્ષ": 2837,
      "▁પુરા": 2838,
      "ળના": 2839,
      "▁તેજસ્વી": 2840,
      "▁દ્": 2841,
      "▁જાઓ": 2842,
      "વલ": 2843,
      "▁વિટ": 2844,
      "લેથી": 2845,
      "રીઝ": 2846,
      "▁રાજ્યમાં": 2847,
      "▁વર્તમાન": 2848,
      "▁શકા": 2849,
      "કોર": 2850,
      "▁મહારાષ્ટ્ર": 2851,
      "આતમાં": 2852,
      "▁દવાઓ": 2853,
      "▁શકી": 2854,
      "▁સંદર્": 2855,
      "સ્થિત": 2856,
      "▁ચમચી": 2857,
      "▁પાઠ": 2858,
      "▁લોન": 2859,
      "▁સુરક્ષિત": 2860,
      "લ્પો": 2861,
      "પમાં": 2862,
      "▁સામાજિક": 2863,
      "▁શંકા": 2864,
      "▁ઉમેર": 2865,
      "રેલી": 2866,
      "▁સેક": 2867,
      "▁ઇચ્છા": 2868,
      "▁સ્વચ્છ": 2869,
      "▁શરીરમાં": 2870,
      "▁ભોગ": 2871,
      "▁સ્વીકાર": 2872,
      "▁જિલ્લામાં": 2873,
      "સ્ટ્રી": 2874,
      "▁શુક્ર": 2875,
      "▁કેન્દ": 2876,
      "▁બાદમાં": 2877,
      "વમાં": 2878,
      "બેન": 2879,
      "▁તેવા": 2880,
      "▁મજા": 2881,
      "▁બ્લ": 2882,
      "▁જણાવ્યા": 2883,
      "▁એટલા": 2884,
      "▁અધિકાર": 2885,
      "▁સરખ": 2886,
      "લક": 2887,
      "ચીન": 2888,
      "▁પ્રેર": 2889,
      "્યાન": 2890,
      "▁કુટુંબ": 2891,
      "▁મદદથી": 2892,
      "▁મૂળભૂત": 2893,
      "▁લીલા": 2894,
      "▁માને": 2895,
      "▁ફ્ર": 2896,
      "▁કાર્યો": 2897,
      "▁પૂજા": 2898,
      "▁પ્રસંગ": 2899,
      "▁સ્ક્રી": 2900,
      "▁ભારતના": 2901,
      "▁ક્રા": 2902,
      "▁નર": 2903,
      "▁ગરી": 2904,
      "▁રાજ્યો": 2905,
      "▁શાકભા": 2906,
      "▁કલ્": 2907,
      "▁દીધો": 2908,
      "▁અડધા": 2909,
      "ભૂ": 2910,
      "ભરમાં": 2911,
      "સણ": 2912,
      "▁એપ્લિક": 2913,
      "▁વાર્તા": 2914,
      "▁વિકલ્પો": 2915,
      "▁ડુંગળી": 2916,
      "રેજ": 2917,
      "▁સેક્સ": 2918,
      "▁પ્રતિનિ": 2919,
      "▁બરાબર": 2920,
      "રોને": 2921,
      "▁એન્જિન": 2922,
      "▁કાં": 2923,
      "▁ડોલર": 2924,
      "▁વિગતો": 2925,
      "▁કેન્સર": 2926,
      "▁આપતા": 2927,
      "▁ખી": 2928,
      "▁ઓક્ટો": 2929,
      "▁સાધન": 2930,
      "▁સ્પર્ધા": 2931,
      "ટિ": 2932,
      "ખ્યાત": 2933,
      "▁કિસ્સાઓમાં": 2934,
      "▁પહેલેથી": 2935,
      "જ્જ": 2936,
      "▁આફ": 2937,
      "દ્ધાંત": 2938,
      "▁પ્રારંભિક": 2939,
      "ળમાં": 2940,
      "▁કરનાર": 2941,
      "ળુ": 2942,
      "▁વર્ષથી": 2943,
      "▁હાથમાં": 2944,
      "મ્પ્યુ": 2945,
      "▁કેમે": 2946,
      "▁સમુદ્ર": 2947,
      "▁મહિનામાં": 2948,
      "▁માપ": 2949,
      "વિસ": 2950,
      "▁ટ્વિ": 2951,
      "સ્ય": 2952,
      "▁શરૂઆતમાં": 2953,
      "▁શહેરના": 2954,
      "પત્ર": 2955,
      "▁પ્રવાહી": 2956,
      "▁જોખમ": 2957,
      "▁બાળકોને": 2958,
      "▁પહોંચા": 2959,
      "▁રૂપા": 2960,
      "▁પ્રશ": 2961,
      "ડુ": 2962,
      "▁પુર": 2963,
      "▁કર્મચારીઓ": 2964,
      "▁ફાયદા": 2965,
      "▁ઐ": 2966,
      "▁હાર્દિક": 2967,
      "▁તેવું": 2968,
      "ડીઓ": 2969,
      "ચ્યુ": 2970,
      "▁મૂલ્ય": 2971,
      "ોના": 2972,
      "▁મેન": 2973,
      "▁પામ": 2974,
      "▁પાણીની": 2975,
      "▁ટૂંકા": 2976,
      "▁પ્રયત્ન": 2977,
      "▁અનિ": 2978,
      "ર્તાઓ": 2979,
      "▁સ્થળો": 2980,
      "▁મોટાભાગના": 2981,
      "▁પેશ": 2982,
      "▁રચ": 2983,
      "▁અસ્ત": 2984,
      "▁સંદર્ભ": 2985,
      "નિંગ": 2986,
      "▁આવરી": 2987,
      "▁સ્થાપિત": 2988,
      "▁દેવા": 2989,
      "▁ફૂલો": 2990,
      "▁કસર": 2991,
      "▁પ્રતિક્રિયા": 2992,
      "▁માર્ચ": 2993,
      "ાયલ": 2994,
      "▁સ્ટાર": 2995,
      "▁ન્યુ": 2996,
      "▁ધમ": 2997,
      "▁કૂ": 2998,
      "▁લંબા": 2999,
      "ંદી": 3000,
      "▁પાણીમાં": 3001,
      "▁ત્રિ": 3002,
      "▁કઈ": 3003,
      "િત્": 3004,
      "▁સંગઠ": 3005,
      "▁સમજી": 3006,
      "ાનક": 3007,
      "▁અમિત": 3008,
      "▁દીધું": 3009,
      "▁બ્રાન્ડ": 3010,
      "મસ": 3011,
      "▁શખ": 3012,
      "▁ગય": 3013,
      "▁નિયંત્રણ": 3014,
      "▁મારફ": 3015,
      "વેલ": 3016,
      "▁ધોરણ": 3017,
      "▁તફ": 3018,
      "▁ઇલેક્ટ": 3019,
      "▁આભાર": 3020,
      "▁માનસિક": 3021,
      "▁શોધવા": 3022,
      "▁હકીક": 3023,
      "▁વિકેટ": 3024,
      "▁અવાજ": 3025,
      "દમ": 3026,
      "▁લવ": 3027,
      "▁ઘે": 3028,
      "▁પ્લેટ": 3029,
      "ન્જ": 3030,
      "▁સમયથી": 3031,
      "▁દસ": 3032,
      "▁અનુકૂળ": 3033,
      "▁સ્પે": 3034,
      "▁પાન": 3035,
      "▁ધરવામાં": 3036,
      "▁સ્થિર": 3037,
      "▁સર્જ": 3038,
      "રનેટ": 3039,
      "▁પ્રાથમ": 3040,
      "▁જથ્": 3041,
      "▁ઠંડી": 3042,
      "▁ડૉક્ટર": 3043,
      "સ્પતિ": 3044,
      "▁ત્રીજા": 3045,
      "▁બજેટ": 3046,
      "▁રાંધ": 3047,
      "ગ્રસ્ત": 3048,
      "ઓનું": 3049,
      "▁જેનો": 3050,
      "▁સ્વતંત્ર": 3051,
      "▁ચોક": 3052,
      "▁અચાનક": 3053,
      "▁માઇ": 3054,
      "ંબુ": 3055,
      "▁ભવ્ય": 3056,
      "▁ફ્રી": 3057,
      "▁ઉપયોગમાં": 3058,
      "▁પ્રાથમિક": 3059,
      "▁ઘટી": 3060,
      "▁તમારું": 3061,
      "સાહ": 3062,
      "▁પ્રવાસ": 3063,
      "તરના": 3064,
      "▁બુધ": 3065,
      "▁જોઇ": 3066,
      "▁પ્રાચીન": 3067,
      "▁ચરબી": 3068,
      "▁ગીત": 3069,
      "દના": 3070,
      "▁નાણાકીય": 3071,
      "▁દર્શાવે": 3072,
      "▁ચિક": 3073,
      "ગરમાં": 3074,
      "સૂ": 3075,
      "લેસ": 3076,
      "▁અફ": 3077,
      "▁ફેસ": 3078,
      "▁આપ્યા": 3079,
      "▁ફર્": 3080,
      "ઇઝ": 3081,
      "▁મરી": 3082,
      "▁આવો": 3083,
      "▁બનાવો": 3084,
      "▁સન્": 3085,
      "▁સ્થિતિમાં": 3086,
      "▁પકડ": 3087,
      "▁નિર્માણ": 3088,
      "▁મળીને": 3089,
      "▁ફેબ્રુ": 3090,
      "ંટી": 3091,
      "▁પર્વ": 3092,
      "▁એસિ": 3093,
      "▁લખ્યું": 3094,
      "▁પ્રત્યે": 3095,
      "▁પાંદ": 3096,
      "▁ડ્રેસ": 3097,
      "▁શાકભાજી": 3098,
      "▁સવાર": 3099,
      "િષ્ટ": 3100,
      "▁મુક": 3101,
      "▁કોહ": 3102,
      "▁સ્થાને": 3103,
      "▁પરંપરાગત": 3104,
      "લ્લ": 3105,
      "▁કોર્ટમાં": 3106,
      "▁સ્વપ્": 3107,
      "▁મહત્વનું": 3108,
      "▁બજારમાં": 3109,
      "સેના": 3110,
      "ન્ડો": 3111,
      "▁વનસ્પતિ": 3112,
      "▁માધ્ય": 3113,
      "▁કેસમાં": 3114,
      "▁નીકળ": 3115,
      "▁પહોંચ્યા": 3116,
      "▁તિ": 3117,
      "▁ઓવર": 3118,
      "પિત": 3119,
      "▁એકદમ": 3120,
      "▁ઝો": 3121,
      "અપ": 3122,
      "▁અગ્ર": 3123,
      "▁ઉપાય": 3124,
      "▁સલમાન": 3125,
      "▁હાઉસ": 3126,
      "▁ઓછું": 3127,
      "▁સંભાવના": 3128,
      "▁લોહી": 3129,
      "▁ક્રીમ": 3130,
      "▁પાડી": 3131,
      "નાથ": 3132,
      "▁હોઇ": 3133,
      "▁જીતી": 3134,
      "▁ઝી": 3135,
      "યન": 3136,
      "▁ચેક": 3137,
      "▁રાષ્ટ્રપતિ": 3138,
      "▁ગ્રાહકો": 3139,
      "▁અપે": 3140,
      "▁જમ્": 3141,
      "ટીના": 3142,
      "▁ચાર્જ": 3143,
      "▁સંભવ": 3144,
      "▁વિકસ": 3145,
      "▁ફેબ્રુઆરી": 3146,
      "▁ફૂટ": 3147,
      "▁ઋ": 3148,
      "બાર": 3149,
      "કૃત": 3150,
      "▁ડિસેમ્બર": 3151,
      "▁મૌ": 3152,
      "▁પોતાનું": 3153,
      "▁એપ્રિલ": 3154,
      "▁ફાયદો": 3155,
      "શ્ચિત": 3156,
      "▁સવાલ": 3157,
      "▁દેશની": 3158,
      "દેવ": 3159,
      "▁સ્નાયુ": 3160,
      "▁પશ્ચ": 3161,
      "▁પેટ્રોલ": 3162,
      "▁આંગ": 3163,
      "▁કહ્યુ": 3164,
      "ડ્સ": 3165,
      "▁નિક": 3166,
      "▁રંગો": 3167,
      "▁કરશો": 3168,
      "લાઇટ": 3169,
      "કાર્": 3170,
      "▁મુસ્": 3171,
      "▁આંકડા": 3172,
      "▁માટેના": 3173,
      "▁ખ્યા": 3174,
      "ઝે": 3175,
      "▁સિદ્ધાંત": 3176,
      "▁બનશે": 3177,
      "મું": 3178,
      "▁વપરાશક": 3179,
      "▁નાગરિક": 3180,
      "હોલ": 3181,
      "▁સંયુક્ત": 3182,
      "્રમ": 3183,
      "▁અપા": 3184,
      "▁ફિટ": 3185,
      "▁લોન્ચ": 3186,
      "▁પ્રવાસીઓ": 3187,
      "▁ફાઈ": 3188,
      "લેશ": 3189,
      "▁ઊંઘ": 3190,
      "▁વાતચીત": 3191,
      "▁મોટું": 3192,
      "▁બેડ": 3193,
      "ઈન": 3194,
      "▁ચાલે": 3195,
      "ીય": 3196,
      "▁પથ્થ": 3197,
      "▁ઇંડા": 3198,
      "▁પરિણામો": 3199,
      "▁પ્લાસ્ટિક": 3200,
      "▁ગુનો": 3201,
      "▁થોડો": 3202,
      "▁આતંકી": 3203,
      "▁કહેવા": 3204,
      "▁કેપ્": 3205,
      "▁સ્થળે": 3206,
      "ટર્સ": 3207,
      "▁જળ": 3208,
      "હ્ય": 3209,
      "▁ગૃહ": 3210,
      "▁નોંધા": 3211,
      "▁થોડું": 3212,
      "▁ટિક": 3213,
      "▁એટલું": 3214,
      "▁શર્મા": 3215,
      "▁દરમ્યાન": 3216,
      "▁તેમનું": 3217,
      "▁ગુજરાતી": 3218,
      "▁ભારતની": 3219,
      "ગમ": 3220,
      "▁દરવા": 3221,
      "▁વિશ્વમાં": 3222,
      "▁જ્ઞાન": 3223,
      "▁ઓલ": 3224,
      "ંજન": 3225,
      "▁સ્વાદિષ્ટ": 3226,
      "ખું": 3227,
      "▁હોમ": 3228,
      "▁તત્વો": 3229,
      "▁ઈન્ટ": 3230,
      "▁કને": 3231,
      "રોધ": 3232,
      "ીઓ": 3233,
      "▁પૂરતી": 3234,
      "▁હવામાન": 3235,
      "▁એજન્સી": 3236,
      "▁પાત": 3237,
      "▁પગલું": 3238,
      "્રિક": 3239,
      "▁મેડ": 3240,
      "ડના": 3241,
      "▁મૂકવામાં": 3242,
      "ેલો": 3243,
      "▁મંત": 3244,
      "▁બીજું": 3245,
      "▁કોહલી": 3246,
      "▁વેચ": 3247,
      "▁સર્વ": 3248,
      "▁દુઃ": 3249,
      "▁વાયરલ": 3250,
      "▁ક્લા": 3251,
      "▁આંખો": 3252,
      "▁ટૂંક": 3253,
      "▁ડ્રાઇ": 3254,
      "િશ": 3255,
      "▁નવું": 3256,
      "▁ચાહ": 3257,
      "લિશ": 3258,
      "▁સ્થાપના": 3259,
      "િયાના": 3260,
      "▁તેમનો": 3261,
      "▁મોડેલ": 3262,
      "▁જ્યો": 3263,
      "▁મફ": 3264,
      "▁ચૂંટણીમાં": 3265,
      "▁ત્રા": 3266,
      "▁વોલ": 3267,
      "▁બાબતે": 3268,
      "▁અત્યારે": 3269,
      "▁ફોટા": 3270,
      "▁પોતાનો": 3271,
      "▁જવાનો": 3272,
      "▁સ્કૂ": 3273,
      "▁પાક": 3274,
      "▁શારી": 3275,
      "▁અસ્થ": 3276,
      "▁નામે": 3277,
      "ષ્ક": 3278,
      "▁સમૃ": 3279,
      "ટીન": 3280,
      "મ્પ્યુટર": 3281,
      "▁ગેસ": 3282,
      "▁મૂર્": 3283,
      "▁વૉ": 3284,
      "▁મુલાકા": 3285,
      "▁ઉંમ": 3286,
      "ન્શન": 3287,
      "▁પરિબ": 3288,
      "▁ઇજા": 3289,
      "ણીય": 3290,
      "▁ટેબલ": 3291,
      "▁મુક્ત": 3292,
      "▁કું": 3293,
      "▁રાજા": 3294,
      "▁તબીબી": 3295,
      "▁રિલીઝ": 3296,
      "▁દિવસોમાં": 3297,
      "સમ": 3298,
      "▁હર": 3299,
      "▁મૂકો": 3300,
      "સવ": 3301,
      "લેશન": 3302,
      "▁મારફતે": 3303,
      "▁અબ": 3304,
      "▁જાણીતા": 3305,
      "▁રહેલી": 3306,
      "▁નેટવર્ક": 3307,
      "▁હકારાત્મક": 3308,
      "▁સફર": 3309,
      "▁વ્યાપક": 3310,
      "▁ફૂલ": 3311,
      "દિત": 3312,
      "▁મુસ્લિ": 3313,
      "▁સમાપ્ત": 3314,
      "ાર્ટમેન્ટ": 3315,
      "▁પવ": 3316,
      "ર્ડર": 3317,
      "▁બીજો": 3318,
      "▁વહી": 3319,
      "▁નેશનલ": 3320,
      "▁કરતો": 3321,
      "મેટ": 3322,
      "▁ઉપચાર": 3323,
      "▁પુત્રી": 3324,
      "▁બેસી": 3325,
      "કૃતિ": 3326,
      "▁ઇન્સ્ટ": 3327,
      "▁ટ્રાફિક": 3328,
      "▁આટ": 3329,
      "▁ઉમ": 3330,
      "▁ચાલો": 3331,
      "▁સાંસ": 3332,
      "▁હેલ્": 3333,
      "▁શારીરિક": 3334,
      "▁ઊંચી": 3335,
      "▁સગ": 3336,
      "▁સરખામ": 3337,
      "▁આથી": 3338,
      "▁સમૂહ": 3339,
      "▁વિટામ": 3340,
      "▁જાતિ": 3341,
      "▁મકાન": 3342,
      "▁પ્રિયંકા": 3343,
      "▁બ્લો": 3344,
      "▁ધન": 3345,
      "▁સંગ્રહ": 3346,
      "▁હાર": 3347,
      "▁કેમેરા": 3348,
      "▁પ્રોત્": 3349,
      "▁નુકશાન": 3350,
      "▁કચ": 3351,
      "▁સૂત્રો": 3352,
      "▁જવાબદાર": 3353,
      "▁બાબતો": 3354,
      "▁યુવક": 3355,
      "▁કર્યુ": 3356,
      "▁મેક": 3357,
      "લ્ફ": 3358,
      "▁રીત": 3359,
      "▁રેસ્ટો": 3360,
      "્યુમ": 3361,
      "▁ઠંડા": 3362,
      "ૂમ": 3363,
      "▁ભરા": 3364,
      "▁કવિ": 3365,
      "▁કાઢી": 3366,
      "▁મનોર": 3367,
      "ક્ષેપ": 3368,
      "▁થતો": 3369,
      "▁કન્": 3370,
      "▁ટુકડા": 3371,
      "▁દરરોજ": 3372,
      "ેલું": 3373,
      "▁પાવર": 3374,
      "▁મોબાઇલ": 3375,
      "▁વિમાન": 3376,
      "▁પકડી": 3377,
      "▁નક": 3378,
      "▁મેનેજ": 3379,
      "▁વાહનો": 3380,
      "ળાના": 3381,
      "ધ્ધ": 3382,
      "ગલ": 3383,
      "▁બ્રિ": 3384,
      "▁ઓસ્ટ્રે": 3385,
      "▁અસ્તિત્વ": 3386,
      "કેશન": 3387,
      "▁ટેકનોલોજી": 3388,
      "સને": 3389,
      "▁વિરા": 3390,
      "▁સંબંધો": 3391,
      "એન": 3392,
      "ફોર્મ": 3393,
      "▁વિગત": 3394,
      "▁રમતો": 3395,
      "ળીને": 3396,
      "ંકર": 3397,
      "▁બાકીના": 3398,
      "▁કરાવી": 3399,
      "પલ": 3400,
      "▁દીપ": 3401,
      "▁નવો": 3402,
      "▁સહિતના": 3403,
      "▁છૂટ": 3404,
      "વ્યા": 3405,
      "▁જાતે": 3406,
      "▁યુવા": 3407,
      "▁દોરી": 3408,
      "▁પર્": 3409,
      "▁આદર્શ": 3410,
      "▁ડાઉન": 3411,
      "▁સંભાળ": 3412,
      "▁નવેમ્બર": 3413,
      "▁જઇ": 3414,
      "▁આના": 3415,
      "▁ખોલ": 3416,
      "સ્પે": 3417,
      "▁નાય": 3418,
      "▁આપવાની": 3419,
      "રોની": 3420,
      "▁ગોલ્ડ": 3421,
      "▁ગ્રહ": 3422,
      "▁એમાં": 3423,
      "▁દઈ": 3424,
      "કોએ": 3425,
      "▁સંદેશ": 3426,
      "▁મશીન": 3427,
      "▁અણ": 3428,
      "▁તેણી": 3429,
      "▁વાપર": 3430,
      "▁ચૌ": 3431,
      "▁અભિન": 3432,
      "▁કોઈને": 3433,
      "▁સભ્ય": 3434,
      "ંતિ": 3435,
      "▁ફંડ": 3436,
      "ચિ": 3437,
      "▁સ્કે": 3438,
      "ટીમાં": 3439,
      "ટને": 3440,
      "▁જર્મ": 3441,
      "▁શરતો": 3442,
      "▁ઉંમર": 3443,
      "▁થયેલી": 3444,
      "▁ગુજરાતના": 3445,
      "▁ઉમેદવાર": 3446,
      "ડીયા": 3447,
      "▁દર્શન": 3448,
      "▁જેવું": 3449,
      "▁બોલિવ": 3450,
      "▁ગામમાં": 3451,
      "▁સ્પી": 3452,
      "▁બરફ": 3453,
      "▁સ્ટાફ": 3454,
      "નામાં": 3455,
      "▁ગામે": 3456,
      "▁દીધા": 3457,
      "▁પરીક્ષણ": 3458,
      "▁વૈજ્ઞાન": 3459,
      "▁કલ્પના": 3460,
      "▁સપ્ટેમ્બર": 3461,
      "▁ભુ": 3462,
      "▁બેન્ક": 3463,
      "▁યૂ": 3464,
      "▁સજ્જ": 3465,
      "▁વિન": 3466,
      "▁કરાર": 3467,
      "▁પ્રયોગ": 3468,
      "▁સીધા": 3469,
      "▁કુશ": 3470,
      "જને": 3471,
      "▁સંતુ": 3472,
      "લોડ": 3473,
      "▁બિંદુ": 3474,
      "▁વિરોધી": 3475,
      "▁બીમારી": 3476,
      "▁ફ્રા": 3477,
      "▁ચામડી": 3478,
      "િવિ": 3479,
      "બુક": 3480,
      "▁ફળો": 3481,
      "ર્દી": 3482,
      "▁નકારાત્મક": 3483,
      "સ્ત્રી": 3484,
      "▁પ્રતી": 3485,
      "▁ભેટ": 3486,
      "ણના": 3487,
      "ાયર": 3488,
      "▁ઈજા": 3489,
      "▁વાનગીઓ": 3490,
      "▁લંબાઈ": 3491,
      "▁પરેશ": 3492,
      "▁નિદાન": 3493,
      "▁મના": 3494,
      "▁જોર": 3495,
      "▁પોલીસને": 3496,
      "રાષ્ટ્રીય": 3497,
      "▁પૃથ્": 3498,
      "▁હકીકતમાં": 3499,
      "ણની": 3500,
      "▁તૂ": 3501,
      "▁મહેમાનો": 3502,
      "▁રદ": 3503,
      "ર્જી": 3504,
      "▁એરપોર્ટ": 3505,
      "સ્ટી": 3506,
      "▁તણાવ": 3507,
      "▁હેડ": 3508,
      "▁સિંગ": 3509,
      "▁શુદ્ધ": 3510,
      "▁સુધારો": 3511,
      "▁કોમ": 3512,
      "▁ઊર્જા": 3513,
      "▁તફાવત": 3514,
      "▁બાહ્ય": 3515,
      "▁આપણી": 3516,
      "▁સરસ": 3517,
      "▁ટ્રેન": 3518,
      "▁વેપારી": 3519,
      "▁કડક": 3520,
      "▁ઘરની": 3521,
      "▁માત્રા": 3522,
      "▁મહત્તમ": 3523,
      "▁કેર": 3524,
      "▁ઓપરેશન": 3525,
      "▁મોટર": 3526,
      "▁તું": 3527,
      "▁વેપાર": 3528,
      "▁પ્રોત્સા": 3529,
      "▁આર્ટ": 3530,
      "▁કરાયો": 3531,
      "▁સન્માન": 3532,
      "પ્તિ": 3533,
      "▁ઉમેદવારો": 3534,
      "▁તહે": 3535,
      "▁સંસ": 3536,
      "▁પગાર": 3537,
      "▁રાજ્યના": 3538,
      "▁ઊભા": 3539,
      "▁વ્યક્તિને": 3540,
      "▁અકસ્માત": 3541,
      "માને": 3542,
      "▁સુના": 3543,
      "સિસ": 3544,
      "▁લેશે": 3545,
      "બૂ": 3546,
      "▁અખ": 3547,
      "▁ચેપ": 3548,
      "▁કસરત": 3549,
      "▁પરા": 3550,
      "▁બ્લેક": 3551,
      "▁ચીન": 3552,
      "પ્રદેશ": 3553,
      "▁રજૂઆત": 3554,
      "▁મફત": 3555,
      "▁ઘણું": 3556,
      "▁ન્યાય": 3557,
      "▁સ્વિ": 3558,
      "▁જોડાયેલ": 3559,
      "▁માર્કે": 3560,
      "▁સ્મ": 3561,
      "▁વિપ": 3562,
      "ઠ્ઠી": 3563,
      "▁હોત": 3564,
      "▁આલ્": 3565,
      "▁મોહ": 3566,
      "▁પૃષ્ઠ": 3567,
      "▁સત્ય": 3568,
      "▁લશ્": 3569,
      "લ્ટી": 3570,
      "▁પૃથ્વી": 3571,
      "લમ": 3572,
      "▁લેતા": 3573,
      "▁યુએસ": 3574,
      "▁જતી": 3575,
      "▁રસ્તો": 3576,
      "▁લડ": 3577,
      "▁ઝે": 3578,
      "▁હોસ્પિટલ": 3579,
      "ટણી": 3580,
      "▁દાય": 3581,
      "▁વેસ્ટ": 3582,
      "▁સૂચિ": 3583,
      "▁દાંત": 3584,
      "▁ખુશી": 3585,
      "ક્કર": 3586,
      "▁સીધી": 3587,
      "▁વ્યાજ": 3588,
      "▁ક્રેડ": 3589,
      "▁ભલે": 3590,
      "▁ઉપા": 3591,
      "▁બાળકને": 3592,
      "▁લાંબી": 3593,
      "▁જમ્મુ": 3594,
      "▁ઓગસ્ટ": 3595,
      "ઉં": 3596,
      "▁વિલ": 3597,
      "ંદોલ": 3598,
      "ગુ": 3599,
      "▁શખ્સ": 3600,
      "▁કચે": 3601,
      "▁કાગળ": 3602,
      "▁પદાર્": 3603,
      "▁નિષ્ણાતો": 3604,
      "▁સાથી": 3605,
      "▁મેચમાં": 3606,
      "▁આખા": 3607,
      "કેશ": 3608,
      "▁જૈ": 3609,
      "▁થવું": 3610,
      "▁રાજસ્થાન": 3611,
      "▁ક્રેડિટ": 3612,
      "▁પાડવામાં": 3613,
      "▁પડ્યો": 3614,
      "▁ધારાસભ્ય": 3615,
      "▁હળ": 3616,
      "▁દીઠ": 3617,
      "▁ઇંચ": 3618,
      "▁ચૂકવણી": 3619,
      "▁સ્વપ્ન": 3620,
      "▁ભાગમાં": 3621,
      "▁અપેક્ષા": 3622,
      "ગ્ન": 3623,
      "▁હિન્દ": 3624,
      "▁રાજકાર": 3625,
      "▁દિશામાં": 3626,
      "▁જિલ્લાના": 3627,
      "▁સંસ્કૃતિ": 3628,
      "▁ખંડ": 3629,
      "▁જાતને": 3630,
      "લામાં": 3631,
      "રીના": 3632,
      "▁ઓટો": 3633,
      "▁લેવાની": 3634,
      "▁ક્રે": 3635,
      "રૂપે": 3636,
      "▁શામેલ": 3637,
      "▁દેશો": 3638,
      "▁ત્રણે": 3639,
      "▁કારકિ": 3640,
      "▁કારકિર્દી": 3641,
      "કોની": 3642,
      "▁જુલાઈ": 3643,
      "▁ડિસ્": 3644,
      "▁જૂની": 3645,
      "મય": 3646,
      "▁અંબા": 3647,
      "▁મળતી": 3648,
      "▁દુખ": 3649,
      "▁સૂચના": 3650,
      "▁આંતરરાષ્ટ્રીય": 3651,
      "નક": 3652,
      "▁આંદોલ": 3653,
      "▁ઉદ્": 3654,
      "લીન": 3655,
      "▁પુસ્તક": 3656,
      "ન્સે": 3657,
      "▁પેઇન્ટ": 3658,
      "▁રોલ": 3659,
      "▁સેલ": 3660,
      "▁યુનિ": 3661,
      "▁મૂકે": 3662,
      "▁કરોડની": 3663,
      "▁સભા": 3664,
      "▁મથ": 3665,
      "▁મેદાન": 3666,
      "ખ્ત": 3667,
      "▁ડ્રો": 3668,
      "▁કાર્યક્રમો": 3669,
      "▁પશુ": 3670,
      "ડીએ": 3671,
      "સં": 3672,
      "▁હસ્ત": 3673,
      "▁એશ": 3674,
      "ોષ": 3675,
      "▁કન્યા": 3676,
      "▁કરાઈ": 3677,
      "▁એકત્ર": 3678,
      "▁તારા": 3679,
      "▁સમિતિ": 3680,
      "▁ઊંડા": 3681,
      "▁આરામદાયક": 3682,
      "▁બ્રિટ": 3683,
      "▁અંતર્": 3684,
      "ભાવસ્થા": 3685,
      "ૈયા": 3686,
      "▁મંડ": 3687,
      "▁અભિનેતા": 3688,
      "▁પુરુષો": 3689,
      "▁મોડલ": 3690,
      "▁ક્રિ": 3691,
      "મદ": 3692,
      "વ્યો": 3693,
      "▁ઊભી": 3694,
      "ંઠ": 3695,
      "▁સાથેના": 3696,
      "▁મોંઘ": 3697,
      "▁કંપનીના": 3698,
      "▁નાં": 3699,
      "▁યુવાનો": 3700,
      "▁કરેલ": 3701,
      "ર્તન": 3702,
      "▁સંયો": 3703,
      "ન્ના": 3704,
      "▁ભૌ": 3705,
      "▁મધ્યમ": 3706,
      "▁વ્હી": 3707,
      "▁તાલુકાના": 3708,
      "▁અદ": 3709,
      "▁બટા": 3710,
      "▁સંશોધન": 3711,
      "▁રમા": 3712,
      "▁નીચા": 3713,
      "▁અંદાજ": 3714,
      "પિંગ": 3715,
      "રાષ્ટ્ર": 3716,
      "▁પંચાય": 3717,
      "કાલે": 3718,
      "▁સોફ્ટ": 3719,
      "▁આખરે": 3720,
      "▁અનન્ય": 3721,
      "▁હોટ": 3722,
      "▁સેવાઓ": 3723,
      "▁નાગરિકો": 3724,
      "▁ધમકી": 3725,
      "▁અંતર્ગત": 3726,
      "જીવ": 3727,
      "▁સરકારની": 3728,
      "▁નામના": 3729,
      "જરે": 3730,
      "▁જૂન": 3731,
      "▁સુનાવણી": 3732,
      "▁અજા": 3733,
      "▁બીચ": 3734,
      "▁રેસીપી": 3735,
      "▁રમી": 3736,
      "▁પ્રવાહ": 3737,
      "ંદુર": 3738,
      "▁દોષ": 3739,
      "▁બાંધકામ": 3740,
      "▁શણ": 3741,
      "▁ચેર": 3742,
      "▁સરકારના": 3743,
      "▁બોક્સ": 3744,
      "▁જોઈને": 3745,
      "▁માળખું": 3746,
      "▁આગે": 3747,
      "▁જણ": 3748,
      "ત્કાર": 3749,
      "ન્ટ્સ": 3750,
      "▁નીકળી": 3751,
      "▁વહીવ": 3752,
      "▁વધારી": 3753,
      "▁ખામી": 3754,
      "જીત": 3755,
      "▁સોલ": 3756,
      "ઓથી": 3757,
      "સ્કાર": 3758,
      "▁પ્રી": 3759,
      "▁સ્ક્રીન": 3760,
      "▁જાગ": 3761,
      "▁સંપત્તિ": 3762,
      "ટીંગ": 3763,
      "▁ફાળ": 3764,
      "▁સંકેત": 3765,
      "સ્પદ": 3766,
      "યે": 3767,
      "માની": 3768,
      "▁ગણા": 3769,
      "ડીમાં": 3770,
      "▁રહો": 3771,
      "▁અંતર": 3772,
      "▁ઓક્ટોબર": 3773,
      "▁પદાર્થો": 3774,
      "▁કિલોમીટર": 3775,
      "દમાં": 3776,
      "ષિ": 3777,
      "▁પ્રકૃતિ": 3778,
      "▁મોડ": 3779,
      "▁સાંભળ": 3780,
      "▁કરું": 3781,
      "▁દૈ": 3782,
      "સરો": 3783,
      "ંતી": 3784,
      "▁વર્ક": 3785,
      "્રાલય": 3786,
      "▁પુલ": 3787,
      "▁પંજા": 3788,
      "▁અસામાન્ય": 3789,
      "▁નાખી": 3790,
      "▁તાજા": 3791,
      "લ્સને": 3792,
      "▁પદાર્થ": 3793,
      "▁વ્યાવ": 3794,
      "▁લોકોમાં": 3795,
      "ંત્રિત": 3796,
      "▁શ્વાસ": 3797,
      "તરણ": 3798,
      "પ્રે": 3799,
      "▁નબળા": 3800,
      "▁પશ્ચિમ": 3801,
      "વરણ": 3802,
      "▁સૂચવે": 3803,
      "▁કાયદો": 3804,
      "મેટા": 3805,
      "▁કરેલા": 3806,
      "▁રેલી": 3807,
      "▁જાળવી": 3808,
      "▁મહેન": 3809,
      "રાના": 3810,
      "▁મોર": 3811,
      "તિહાસિક": 3812,
      "ધાની": 3813,
      "▁ઢા": 3814,
      "▁મહત્ત્વ": 3815,
      "▁દાન": 3816,
      "જાવ": 3817,
      "▁સ્કૂલ": 3818,
      "નેટ": 3819,
      "▁ટાઈ": 3820,
      "કાલ": 3821,
      "▁સંબો": 3822,
      "▁હાર્ડ": 3823,
      "▁મર્યાદા": 3824,
      "▁લુ": 3825,
      "▁લેવી": 3826,
      "▁તાત્": 3827,
      "▁કંપનીએ": 3828,
      "▁લગાવી": 3829,
      "▁વલણ": 3830,
      "▁દાયકા": 3831,
      "▁આકર્ષક": 3832,
      "▁આહાર": 3833,
      "▁રૂમમાં": 3834,
      "▁ખર્ચા": 3835,
      "▁ફેરફારો": 3836,
      "▁મેટ": 3837,
      "▁પ્રેમી": 3838,
      "▁તકલી": 3839,
      "▁હેર": 3840,
      "▁તેઓએ": 3841,
      "▁દિવસની": 3842,
      "▁તંદુર": 3843,
      "િટલ": 3844,
      "▁સૌરાષ્ટ્ર": 3845,
      "▁ગુણધ": 3846,
      "▁પ્રોડક્ટ": 3847,
      "▁સાઉ": 3848,
      "▁ખેતી": 3849,
      "▁ભ્ર": 3850,
      "▁કેન્દ્રીય": 3851,
      "ાર્ક": 3852,
      "▁પાર્ક": 3853,
      "▁ઇન્ડિયા": 3854,
      "▁દબ": 3855,
      "▁પોલિ": 3856,
      "▁ઊંચા": 3857,
      "▁ભૂલી": 3858,
      "ઈટ": 3859,
      "▁ગાંધીનગર": 3860,
      "▁વધારાની": 3861,
      "▁બંદ": 3862,
      "કલ્પ": 3863,
      "▁ટ્વી": 3864,
      "વાસી": 3865,
      "▁સોમવારે": 3866,
      "▁સર્વિસ": 3867,
      "▁શ્રદ્ધા": 3868,
      "▁ઓસ્ટ્રેલિયા": 3869,
      "તૃ": 3870,
      "▁ઓપરે": 3871,
      "ઘાત": 3872,
      "વેદનશીલ": 3873,
      "▁લાવ": 3874,
      "▁હોવ": 3875,
      "ળાની": 3876,
      "▁વસંત": 3877,
      "રાની": 3878,
      "▁વર્ણન": 3879,
      "▁સ્તરે": 3880,
      "▁તાત્કા": 3881,
      "▁સ્તન": 3882,
      "▁એપ્લિકેશન": 3883,
      "▁લાવવા": 3884,
      "પ્રા": 3885,
      "▁વ્યાવસાય": 3886,
      "▁વાંચો": 3887,
      "▁અપી": 3888,
      "▁બળતરા": 3889,
      "▁વ્યાખ્યા": 3890,
      "▁ક્ષેત્રમાં": 3891,
      "▁કમાણી": 3892,
      "▁નિષ્ફળ": 3893,
      "▁વાગ્યા": 3894,
      "▁માંગે": 3895,
      "▁વપરાશ": 3896,
      "ટિવ": 3897,
      "▁નિર્દેશ": 3898,
      "▁નહોતી": 3899,
      "બોલ": 3900,
      "▁વિપરી": 3901,
      "▁રાત": 3902,
      "ંગ્લેન્ડ": 3903,
      "▁વિપરીત": 3904,
      "▁પ્રોગ્રામ": 3905,
      "▁નર્મ": 3906,
      "▁તળાવ": 3907,
      "ીક": 3908,
      "▁મારે": 3909,
      "સિદ્ધ": 3910,
      "▁બેઠકમાં": 3911,
      "ધુ": 3912,
      "▁માસ્ટર": 3913,
      "▁દરવાજા": 3914,
      "▁તેમાંથી": 3915,
      "▁ગેટ": 3916,
      "▁શરીરના": 3917,
      "▁ધોની": 3918,
      "▁સળ": 3919,
      "▁જવું": 3920,
      "▁તમારો": 3921,
      "▁માહોલ": 3922,
      "તાનો": 3923,
      "▁ગણે": 3924,
      "▁વાગ્ય": 3925,
      "▁એવોર્ડ": 3926,
      "▁પ્રચાર": 3927,
      "▁યુવ": 3928,
      "▁ગુણધર્મો": 3929,
      "▁મોસ્કો": 3930,
      "ાર્મિક": 3931,
      "▁અનુભવી": 3932,
      "ન્ક": 3933,
      "▁સુગ": 3934,
      "▁વાગ્યે": 3935,
      "▁સખ": 3936,
      "▁બચાવ": 3937,
      "▁દ્રષ્ટિ": 3938,
      "▁બેક": 3939,
      "▁બુક": 3940,
      "▁પાટી": 3941,
      "▁કરાશે": 3942,
      "▁મોકલી": 3943,
      "▁ચર્ચ": 3944,
      "▁કોંગ્રે": 3945,
      "▁ટિકિટ": 3946,
      "▁લોટ": 3947,
      "▁સિં": 3948,
      "▁દોર": 3949,
      "▁ભેજ": 3950,
      "▁ઓછો": 3951,
      "▁ખાય": 3952,
      "▁બન્યો": 3953,
      "▁રવિવારે": 3954,
      "તક": 3955,
      "▁સંજો": 3956,
      "ર્ષિક": 3957,
      "▁એસિડ": 3958,
      "▁ધાર્મિક": 3959,
      "▁બિલા": 3960,
      "▁વાઇ": 3961,
      "▁ઐતિહાસિક": 3962,
      "્રુ": 3963,
      "▁તાકાત": 3964,
      "▁જુદી": 3965,
      "ગોમાં": 3966,
      "▁મનોરંજન": 3967,
      "▁ફાર્": 3968,
      "▁અજ": 3969,
      "▁સ્વાગત": 3970,
      "▁વીમા": 3971,
      "ખાણ": 3972,
      "મ્પે": 3973,
      "હિત્ય": 3974,
      "▁વધારવા": 3975,
      "▁દુઃખ": 3976,
      "▁જહા": 3977,
      "ટેલે": 3978,
      "ડિઓ": 3979,
      "▁કોલેજ": 3980,
      "▁નખ": 3981,
      "▁પ્રેરણા": 3982,
      "▁મારો": 3983,
      "▁કોન્": 3984,
      "▁ડ્રાઈ": 3985,
      "▁બાળકી": 3986,
      "▁ગુમાવી": 3987,
      "▁સંભવિત": 3988,
      "શોભ": 3989,
      "▁ધોવા": 3990,
      "▁કૌભા": 3991,
      "▁વળતર": 3992,
      "▁જથ્થો": 3993,
      "ૂન": 3994,
      "▁વિદ": 3995,
      "રોના": 3996,
      "▁પ્રતિનિધિ": 3997,
      "સ્ત્રો": 3998,
      "જીની": 3999,
      "▁દેશોમાં": 4000,
      "▁અદા": 4001,
      "▁વસ્તી": 4002,
      "▁દોડ": 4003,
      "▁હેન્ડ": 4004,
      "▁લાગ્યો": 4005,
      "ગમાં": 4006,
      "ડકા": 4007,
      "▁સુશોભ": 4008,
      "▁કમિશન": 4009,
      "▁રાજીના": 4010,
      "▁અભાવ": 4011,
      "▁સુવિધાઓ": 4012,
      "▁ભારતે": 4013,
      "િઝ": 4014,
      "▁ચકા": 4015,
      "▁વર્થ": 4016,
      "▁સ્વરૂપમાં": 4017,
      "▁કમ્પ્યુટર": 4018,
      "પસ": 4019,
      "▁કૅ": 4020,
      "▁પાંદડા": 4021,
      "▁ગામના": 4022,
      "▁તોડી": 4023,
      "▁હિન્દુ": 4024,
      "▁લખી": 4025,
      "▁ઠંડ": 4026,
      "▁નજીકના": 4027,
      "▁ફેશન": 4028,
      "▁સહન": 4029,
      "▁સમર્થન": 4030,
      "▁ક્વા": 4031,
      "▁વાર્ષિક": 4032,
      "બંધી": 4033,
      "ઝલ": 4034,
      "▁જેલ": 4035,
      "ગન": 4036,
      "▁અગત": 4037,
      "▁ઉત્તે": 4038,
      "ંસી": 4039,
      "▁પ્રોફ": 4040,
      "▁સરકારને": 4041,
      "▁સર્વે": 4042,
      "▁હોલ": 4043,
      "▁ઈચ્છ": 4044,
      "▁પુખ્ત": 4045,
      "▁મંત્રાલય": 4046,
      "▁શરુ": 4047,
      "▁મશ": 4048,
      "▁ખ્યાલ": 4049,
      "▁પથ્થર": 4050,
      "▁રાખવું": 4051,
      "લોટ": 4052,
      "▁રહેવું": 4053,
      "▁અગત્ય": 4054,
      "ચય": 4055,
      "▁અપના": 4056,
      "યાત": 4057,
      "▁ઉપકરણો": 4058,
      "ણિક": 4059,
      "દની": 4060,
      "▁નાશ": 4061,
      "▁બર": 4062,
      "સીબ": 4063,
      "▁સફાઈ": 4064,
      "▁કેપ્ટન": 4065,
      "▁પ્રસ્તુ": 4066,
      "▁હોવાનો": 4067,
      "▁વાયુ": 4068,
      "▁શાખા": 4069,
      "▁દઈએ": 4070,
      "▁કટ": 4071,
      "▁કિશો": 4072,
      "▁ક્રમમાં": 4073,
      "ણક": 4074,
      "▁વિરાટ": 4075,
      "ઈડ": 4076,
      "ર્જ": 4077,
      "▁વહેંચ": 4078,
      "▁અંધ": 4079,
      "▁આવેલું": 4080,
      "▁પોર્ટ": 4081,
      "▁હળવા": 4082,
      "પ્લે": 4083,
      "▁રાઉન્ડ": 4084,
      "▁વાવે": 4085,
      "ંદગી": 4086,
      "▁નામની": 4087,
      "▁ક્લબ": 4088,
      "▁નર્મદા": 4089,
      "▁સાચ": 4090,
      "▁સરખામણી": 4091,
      "▁પોપ": 4092,
      "▁દિલ": 4093,
      "▁નિરા": 4094,
      "▁અહેવાલ": 4095,
      "પિતા": 4096,
      "▁વકી": 4097,
      "▁સાહિત્ય": 4098,
      "▁કુમાર": 4099,
      "▁મળતા": 4100,
      "▁માધ્યમ": 4101,
      "▁તબક્કામાં": 4102,
      "યલ": 4103,
      "િયાર": 4104,
      "▁સમૃદ્ધ": 4105,
      "▁માર્કેટ": 4106,
      "▁લક્ષ્": 4107,
      "▁કાશ્મીર": 4108,
      "▁ડુ": 4109,
      "▁સૈનિક": 4110,
      "ર્સને": 4111,
      "▁એન્ટી": 4112,
      "યાં": 4113,
      "ક્ષ્": 4114,
      "▁વાળા": 4115,
      "રેક્ટર": 4116,
      "▁સ્ટ્રો": 4117,
      "▁મુદ્દો": 4118,
      "પજ": 4119,
      "▁પેઢી": 4120,
      "▁હજારો": 4121,
      "▁રોકડ": 4122,
      "ક્સી": 4123,
      "ઘુ": 4124,
      "▁સ્કી": 4125,
      "▁લીંબુ": 4126,
      "▁ડ્રાઇવ": 4127,
      "કાય": 4128,
      "▁લક્ષણ": 4129,
      "▁આવવા": 4130,
      "ઈક": 4131,
      "▁પ્રશંસા": 4132,
      "▁સચ": 4133,
      "▁મિલિયન": 4134,
      "▁હુ": 4135,
      "▁ભાવના": 4136,
      "▁સ્પા": 4137,
      "▁વિન્ડો": 4138,
      "▁વિશ્લે": 4139,
      "▁ટોપ": 4140,
      "▁પ્રખ્યાત": 4141,
      "મિંગ": 4142,
      "ૂં": 4143,
      "▁બાયો": 4144,
      "▁માટી": 4145,
      "▁સોસાય": 4146,
      "▁સત્તાવાર": 4147,
      "▁ઠીક": 4148,
      "પાલિકા": 4149,
      "▁ઇન્ટરનેટ": 4150,
      "ચલા": 4151,
      "હર": 4152,
      "▁બ્રો": 4153,
      "▁ક્લાસિક": 4154,
      "▁વળી": 4155,
      "સાઇટ": 4156,
      "▁મંગળવારે": 4157,
      "▁સંવેદનશીલ": 4158,
      "▁પેન": 4159,
      "▁અનામત": 4160,
      "▁કરનારા": 4161,
      "▁ફેશ": 4162,
      "પુરા": 4163,
      "▁ઘટનાઓ": 4164,
      "▁વાદળી": 4165,
      "▁ટ્યુ": 4166,
      "▁વાપરી": 4167,
      "▁કલમ": 4168,
      "▁સ્માર્ટફોન": 4169,
      "▁ભવિષ્યમાં": 4170,
      "▁જલ": 4171,
      "▁આક્ર": 4172,
      "િંગ્સ": 4173,
      "▁બગ": 4174,
      "▁જેનાથી": 4175,
      "▁દર્દીઓ": 4176,
      "▁અપીલ": 4177,
      "ત્યા": 4178,
      "ીન": 4179,
      "▁જોગ": 4180,
      "▁સંઘર્ષ": 4181,
      "▁જોડી": 4182,
      "▁ઉત્પ": 4183,
      "▁પવિત્ર": 4184,
      "▁દુખાવો": 4185,
      "કિત": 4186,
      "▁પ્રોટીન": 4187,
      "▁મોબાઈલ": 4188,
      "▁ચિકન": 4189,
      "▁બગી": 4190,
      "▁સાચું": 4191,
      "▁વાય": 4192,
      "વાળું": 4193,
      "▁માંડ": 4194,
      "▁પર્યાવરણ": 4195,
      "▁જરૂરિયા": 4196,
      "▁તંદુરસ્ત": 4197,
      "▁દંપ": 4198,
      "▁પ્લાન": 4199,
      "પ્પ": 4200,
      "▁સ્નાન": 4201,
      "▁ભાવિ": 4202,
      "▁એપાર્ટમેન્ટ": 4203,
      "િક્સ": 4204,
      "▁કચ્છ": 4205,
      "▁ચોક્કસપણે": 4206,
      "▁જનતા": 4207,
      "▁લાઇટ": 4208,
      "▁ઉનાળામાં": 4209,
      "▁મેટલ": 4210,
      "▁કાચ": 4211,
      "▁ભરવા": 4212,
      "▁આતંકવાદી": 4213,
      "▁તાત્કાલિક": 4214,
      "▁સાહ": 4215,
      "▁જેવો": 4216,
      "▁બાથ": 4217,
      "▁લીધું": 4218,
      "▁બનાવ્યા": 4219,
      "▁તાર": 4220,
      "▁અં": 4221,
      "▁હથ": 4222,
      "▁લેખક": 4223,
      "▁દસ્તાવેજો": 4224,
      "ગામ": 4225,
      "▁હીરો": 4226,
      "▁સન": 4227,
      "ામીન": 4228,
      "▁ભેગા": 4229,
      "▁સહેજ": 4230,
      "▁પટેલે": 4231,
      "▁સમયગાળા": 4232,
      "▁ડ્રગ": 4233,
      "▁રિઝ": 4234,
      "▁સ્ટોર": 4235,
      "અર": 4236,
      "▁પડકાર": 4237,
      "લિન": 4238,
      "▁ચેત": 4239,
      "કોમાં": 4240,
      "▁ડૂ": 4241,
      "▁દિલ્હીમાં": 4242,
      "▁અશક": 4243,
      "▁ઠેર": 4244,
      "▁ત્યારથી": 4245,
      "વાને": 4246,
      "▁પોઇન્ટ": 4247,
      "▁પરિબળો": 4248,
      "નગરમાં": 4249,
      "▁ઘટાડવા": 4250,
      "ઝિટ": 4251,
      "▁પ્રધાનમંત્રી": 4252,
      "▁સ્ટેટ": 4253,
      "▁દિવાળી": 4254,
      "▁માઇક્રો": 4255,
      "▁પ્રકાશિત": 4256,
      "▁સિવ": 4257,
      "▁લગ્": 4258,
      "▁આંગળી": 4259,
      "▁હલ": 4260,
      "▁ખોટી": 4261,
      "▁વૃદ્ધ": 4262,
      "▁ઘાયલ": 4263,
      "▁દિવાલો": 4264,
      "▁મુસ્લિમ": 4265,
      "ન્ડી": 4266,
      "▁ઉભા": 4267,
      "▁વિજ્ઞાન": 4268,
      "▁પ્રગતિ": 4269,
      "▁શિવસેના": 4270,
      "▁અશક્ય": 4271,
      "▁મેસે": 4272,
      "▁સીટ": 4273,
      "લિકો": 4274,
      "▁બ્રેક": 4275,
      "કોર્ટ": 4276,
      "કાઉન્ટ": 4277,
      "▁એટલી": 4278,
      "▁દૈનિક": 4279,
      "▁આવ્યાં": 4280,
      "▁ઉંચ": 4281,
      "▁પાલિકા": 4282,
      "▁જીએસ": 4283,
      "▁બપોરે": 4284,
      "▁સૂપ": 4285,
      "▁આય": 4286,
      "▁નમૂ": 4287,
      "▁જોડાયેલા": 4288,
      "▁સંકેતો": 4289,
      "▁ઉપસ્થિત": 4290,
      "▁વિચિત્ર": 4291,
      "રીની": 4292,
      "▁પરિચિત": 4293,
      "ર્ટર": 4294,
      "્રિકા": 4295,
      "લાલ": 4296,
      "▁પ્રાર્થ": 4297,
      "▁નોટિસ": 4298,
      "▁શુક્રવારે": 4299,
      "ઢા": 4300,
      "▁બન્યું": 4301,
      "▁પ્રાણીઓ": 4302,
      "▁ડાયા": 4303,
      "ઝનમાં": 4304,
      "છે": 4305,
      "દ્રા": 4306,
      "▁ડર": 4307,
      "▁રૂપિયાની": 4308,
      "▁ફ્લોર": 4309,
      "▁કેક": 4310,
      "▁છબીઓ": 4311,
      "્ટી": 4312,
      "▁કેમ્પ": 4313,
      "▁પેકે": 4314,
      "▁ભાવમાં": 4315,
      "▁ગરીબ": 4316,
      "▁નિવ": 4317,
      "▁આફ્રિકા": 4318,
      "▁જોયું": 4319,
      "▁અમલ": 4320,
      "▁વધારાના": 4321,
      "▁ડબલ": 4322,
      "ચાવી": 4323,
      "▁આખી": 4324,
      "▁મોડી": 4325,
      "પીએ": 4326,
      "▁કાળજીપૂર્વક": 4327,
      "▁પથ": 4328,
      "▁ચલ": 4329,
      "▁ઓવ": 4330,
      "▁મહિને": 4331,
      "▁મિક્સ": 4332,
      "ષો": 4333,
      "▁કોચ": 4334,
      "▁જેમાંથી": 4335,
      "▁લિટર": 4336,
      "▁મ્યુઝ": 4337,
      "▁હાંસ": 4338,
      "▁પુનરા": 4339,
      "▁એજન્ટ": 4340,
      "▁શિયાળામાં": 4341,
      "હ્ન": 4342,
      "▁દલી": 4343,
      "▁છોકરા": 4344,
      "▁કૌભાંડ": 4345,
      "નનો": 4346,
      "▁મુંબઇ": 4347,
      "▁જામનગર": 4348,
      "▁બતાવ": 4349,
      "▁આવૃત્તિ": 4350,
      "▁સખત": 4351,
      "બદ્ધ": 4352,
      "▁હમ": 4353,
      "▁એનો": 4354,
      "▁નિમણ": 4355,
      "▁ફર્નિ": 4356,
      "▁સંજય": 4357,
      "▁શકશો": 4358,
      "▁ચૂકી": 4359,
      "▁ગ્રાહક": 4360,
      "▁પરના": 4361,
      "▁ગુણો": 4362,
      "▁સાથ": 4363,
      "▁જાણીએ": 4364,
      "▁કેન્દ્રિત": 4365,
      "▁મની": 4366,
      "▁રાવ": 4367,
      "પ્ટ": 4368,
      "▁ગ્રુ": 4369,
      "ક્ટે": 4370,
      "ંથ": 4371,
      "▁ઓળખવામાં": 4372,
      "▁ચુકવણી": 4373,
      "▁માન્યતા": 4374,
      "▁શૂટિંગ": 4375,
      "▁વિરૂ": 4376,
      "▁કરાયા": 4377,
      "▁બુધવારે": 4378,
      "વણ": 4379,
      "▁જગ": 4380,
      "▁સ્ક્ર": 4381,
      "▁સાચી": 4382,
      "ત્વે": 4383,
      "▁કાપડ": 4384,
      "▁પ્રાર્થના": 4385,
      "▁લસણ": 4386,
      "▁સિક": 4387,
      "▁ગિ": 4388,
      "▁કોન્ટ": 4389,
      "▁હોવાના": 4390,
      "▁માતાપિતા": 4391,
      "▁ગુપ્ત": 4392,
      "વત": 4393,
      "▁લૂ": 4394,
      "▁લાગ્યા": 4395,
      "▁કરેલી": 4396,
      "▁ભાવનગર": 4397,
      "▁મહત્વની": 4398,
      "▁ઉત્પાદક": 4399,
      "રાં": 4400,
      "મ્બરે": 4401,
      "▁સમજવા": 4402,
      "▁બેં": 4403,
      "ષ્ટા": 4404,
      "▁સેવન": 4405,
      "બોર્ડ": 4406,
      "▁સંસ્થાઓ": 4407,
      "▁બીજે": 4408,
      "▁ગર્ભ": 4409,
      "▁ઓનલાઇન": 4410,
      "▁કવર": 4411,
      "▁ઓર્ડર": 4412,
      "નનું": 4413,
      "▁દેવી": 4414,
      "▁છત": 4415,
      "▁રુબે": 4416,
      "▁દૃશ્ય": 4417,
      "▁મહેનત": 4418,
      "▁પ્રમો": 4419,
      "વ્યું": 4420,
      "▁બાય": 4421,
      "▁વિશ્વના": 4422,
      "▁પ્રભાવિત": 4423,
      "▁સમક્ષ": 4424,
      "▁અભિયાન": 4425,
      "▁અંગ્રે": 4426,
      "▁ભરતી": 4427,
      "કાંઠા": 4428,
      "▁શાન": 4429,
      "▁નોંધાયો": 4430,
      "▁અજાણ": 4431,
      "▁કરીશું": 4432,
      "▁બનવા": 4433,
      "▁ભૂતકાળ": 4434,
      "▁બંગા": 4435,
      "ણામાં": 4436,
      "▁દિગ્": 4437,
      "▁માળખા": 4438,
      "▁અમદાવાદમાં": 4439,
      "ક્ચર": 4440,
      "▁ઇમે": 4441,
      "ભૂમિ": 4442,
      "▁સ્ત્રો": 4443,
      "▁સ્વામી": 4444,
      "પૂર્વ": 4445,
      "ૂની": 4446,
      "▁કથા": 4447,
      "તિઓ": 4448,
      "▁ટીમે": 4449,
      "▁કરાયું": 4450,
      "▁કેલ": 4451,
      "▁આમાં": 4452,
      "કરે": 4453,
      "▁પુનરાવર્": 4454,
      "▁માસ": 4455,
      "▁પાઇ": 4456,
      "રોએ": 4457,
      "▁પહેલાથી": 4458,
      "▁ઈન્ડિયા": 4459,
      "▁સાંક": 4460,
      "▁મર્યાદિત": 4461,
      "દિવ": 4462,
      "શિયમ": 4463,
      "ળની": 4464,
      "▁સોંપ": 4465,
      "▁મૂડી": 4466,
      "▁કપડા": 4467,
      "▁ઉડ": 4468,
      "▁બનાવવાની": 4469,
      "ગાડ": 4470,
      "▁ખુલા": 4471,
      "▁સંગ્ર": 4472,
      "લાઈન": 4473,
      "▁નોંધવું": 4474,
      "▁પ્રતીક": 4475,
      "▁સ્કો": 4476,
      "સર્": 4477,
      "▁આપણને": 4478,
      "▁મુકા": 4479,
      "▁ગ્રીન": 4480,
      "▁હાંસલ": 4481,
      "ખે": 4482,
      "માલ": 4483,
      "▁પાણીના": 4484,
      "▁પ્રોત્સાહન": 4485,
      "ંડે": 4486,
      "પિયા": 4487,
      "▁હરા": 4488,
      "▁નિશા": 4489,
      "▁ભારતી": 4490,
      "▁પદ્ધતિઓ": 4491,
      "▁તસવીરો": 4492,
      "મરી": 4493,
      "▁મૃતદે": 4494,
      "▁ઑફ": 4495,
      "ંમત": 4496,
      "▁વધતી": 4497,
      "▁બેસ": 4498,
      "▁જરૂરિયાત": 4499,
      "▁આપીને": 4500,
      "▁વીજળી": 4501,
      "દિ": 4502,
      "▁કેપ": 4503,
      "▁આગા": 4504,
      "▁ફોર્": 4505,
      "▁તબક્": 4506,
      "▁અલી": 4507,
      "▁ગમ": 4508,
      "▁ચહેરો": 4509,
      "▁મશરૂ": 4510,
      "▁સિવિલ": 4511,
      "▁મળવા": 4512,
      "વેન્ટ": 4513,
      "▁બનેલી": 4514,
      "▁અગ્રણી": 4515,
      "▁પરિવારના": 4516,
      "ધામ": 4517,
      "▁કૂત": 4518,
      "▁રસોઈ": 4519,
      "▁જવાની": 4520,
      "▁બેટરી": 4521,
      "દર્શક": 4522,
      "▁કોંગ્રેસે": 4523,
      "▁અલ્": 4524,
      "▁મુખ્યત્વે": 4525,
      "▁સાંસદ": 4526,
      "આઉટ": 4527,
      "▁છિ": 4528,
      "▁ભઠ્ઠી": 4529,
      "▁વિતરણ": 4530,
      "તીઓ": 4531,
      "▁ધારાસભ્યો": 4532,
      "ાયી": 4533,
      "▁કંઇ": 4534,
      "▁ત્રણેય": 4535,
      "▁વાવેતર": 4536,
      "▁ઘન": 4537,
      "જીએ": 4538,
      "▁પીડ": 4539,
      "ગારી": 4540,
      "▁પૂરું": 4541,
      "▁ગ્લાસ": 4542,
      "વીર": 4543,
      "▁નાંખ": 4544,
      "▁હિત": 4545,
      "કુલ": 4546,
      "▁રહસ્ય": 4547,
      "દેસર": 4548,
      "▁સહયોગ": 4549,
      "▁વેબસાઇટ": 4550,
      "▁પુરવ": 4551,
      "▁મિશ્ર": 4552,
      "▁આયુ": 4553,
      "▁સાથેની": 4554,
      "▁પેટર્ન": 4555,
      "▁મનુ": 4556,
      "▁ચળ": 4557,
      "ંધો": 4558,
      "▁કારણોસર": 4559,
      "▁તકલીફ": 4560,
      "ક્યુ": 4561,
      "▁આકાશ": 4562,
      "ટીની": 4563,
      "▁ફેસબુક": 4564,
      "▁જરૂરિયાતો": 4565,
      "▁ભરે": 4566,
      "▁નારાજ": 4567,
      "▁બેગ": 4568,
      "▁લાભો": 4569,
      "▁પગલા": 4570,
      "નોમાં": 4571,
      "ડીયો": 4572,
      "▁સુધારવા": 4573,
      "▁પૌ": 4574,
      "▁ચેમ્પ": 4575,
      "▁તસવીર": 4576,
      "▁ભાગો": 4577,
      "▁દેખાશે": 4578,
      "▁એમ્": 4579,
      "▁ફોર": 4580,
      "▁પ્રસિદ્ધ": 4581,
      "કાવ": 4582,
      "▁ચક્ર": 4583,
      "ઝિ": 4584,
      "▁માની": 4585,
      "▁બચાવવા": 4586,
      "▁આને": 4587,
      "▁ચેતવણી": 4588,
      "▁જંતુ": 4589,
      "સાથે": 4590,
      "▁ઓળખાય": 4591,
      "ન્ટી": 4592,
      "▁બોટલ": 4593,
      "▁હિસ્સો": 4594,
      "▁ઘૂ": 4595,
      "▁મોડેલો": 4596,
      "▁કાર્યક્રમમાં": 4597,
      "▁પ્રતિકાર": 4598,
      "▁પડતી": 4599,
      "▁કિંમ": 4600,
      "▁બ્રહ્": 4601,
      "▁રૂપે": 4602,
      "▁માગણી": 4603,
      "▁શનિવારે": 4604,
      "▁ખતરના": 4605,
      "▁આત્મા": 4606,
      "પ્શન": 4607,
      "▁સમાર": 4608,
      "▁પ્લ": 4609,
      "▁લગાવ": 4610,
      "▁કલાકારો": 4611,
      "▁સંતોષ": 4612,
      "▁પાતળા": 4613,
      "▁ખર્ચાળ": 4614,
      "▁પલ": 4615,
      "▁વિજે": 4616,
      "▁પરિવહન": 4617,
      "▁સેકન્ડ": 4618,
      "▁ખતરનાક": 4619,
      "ાવર": 4620,
      "▁ઇલેક્ટ્રો": 4621,
      "▁લાખો": 4622,
      "▁ચાંદી": 4623,
      "▁ટ્રેક": 4624,
      "▁વાસ્તવમાં": 4625,
      "ટેજ": 4626,
      "▁હિટ": 4627,
      "▁શિકાર": 4628,
      "▁રોહિત": 4629,
      "પંચ": 4630,
      "મનો": 4631,
      "શ્ર": 4632,
      "▁વાઈ": 4633,
      "▁ઢો": 4634,
      "સ્તે": 4635,
      "▁વધીને": 4636,
      "▁બનેલા": 4637,
      "▁વર્ષોમાં": 4638,
      "▁મિલકત": 4639,
      "▁સ્વય": 4640,
      "▁ગણેશ": 4641,
      "▁આગાહી": 4642,
      "બર્ગ": 4643,
      "પરછ": 4644,
      "▁અદ્": 4645,
      "▁છેલ્લે": 4646,
      "▁શક્તિશાળી": 4647,
      "▁વિપક્ષ": 4648,
      "વારના": 4649,
      "▁સીબી": 4650,
      "▁વિદ્યાર્થીઓને": 4651,
      "▁ભૌતિક": 4652,
      "રત": 4653,
      "▁પટ્": 4654,
      "▁પ્રસ્તા": 4655,
      "્રેટ": 4656,
      "▁આશ્ર": 4657,
      "▁રોકવા": 4658,
      "▁સરહ": 4659,
      "▁ખોટું": 4660,
      "▁વહેલી": 4661,
      "▁કોટ": 4662,
      "▁સમાજના": 4663,
      "▁મામલો": 4664,
      "▁જૂનાગઢ": 4665,
      "▁વાજ": 4666,
      "િંગમાં": 4667,
      "▁સરદાર": 4668,
      "▁વપરાશકર્તા": 4669,
      "પથ": 4670,
      "ભાગે": 4671,
      "▁કોર્પોરે": 4672,
      "▁સુધારા": 4673,
      "▁કાશ્મીરમાં": 4674,
      "▁બદલવા": 4675,
      "રિય": 4676,
      "▁ભંડો": 4677,
      "લભ": 4678,
      "▁ભરો": 4679,
      "▁ટ્રમ્પ": 4680,
      "તાએ": 4681,
      "સીના": 4682,
      "▁દિવસના": 4683,
      "▁કુશળતા": 4684,
      "▁સત્ર": 4685,
      "▁ઉત": 4686,
      "▁એકલા": 4687,
      "િયેટર": 4688,
      "▁પરિવર્તન": 4689,
      "▁પામી": 4690,
      "▁રહેતી": 4691,
      "▁છાપ": 4692,
      "▁પ્રદેશમાં": 4693,
      "▁સંશોધ": 4694,
      "▁તૂટી": 4695,
      "▁કરતું": 4696,
      "▁તેવો": 4697,
      "▁ગર્ભાવસ્થા": 4698,
      "▁આદિ": 4699,
      "▁છુપ": 4700,
      "▁શણગાર": 4701,
      "▁ઉલ્લ": 4702,
      "▁સિદ્ધ": 4703,
      "ૃત્ય": 4704,
      "▁જસ્ટ": 4705,
      "ાનિ": 4706,
      "▁મુસાફરી": 4707,
      "મિત": 4708,
      "▁સપના": 4709,
      "▁લૉ": 4710,
      "▁થતું": 4711,
      "▁ટ્રી": 4712,
      "▁સંર": 4713,
      "▁એસો": 4714,
      "સીએ": 4715,
      "▁ઔષ": 4716,
      "▁દુકાન": 4717,
      "કોના": 4718,
      "ક્સિ": 4719,
      "▁આગ્રહ": 4720,
      "▁મંદિરમાં": 4721,
      "▁પડ્યા": 4722,
      "▁જોડાયા": 4723,
      "▁સુગંધ": 4724,
      "▁પુરૂ": 4725,
      "▁જનરલ": 4726,
      "▁વાંચવા": 4727,
      "▁પંડ": 4728,
      "▁ભરી": 4729,
      "શાસ્ત્ર": 4730,
      "માત્ર": 4731,
      "▁ચોરસ": 4732,
      "▁બાળકના": 4733,
      "▁ઇમાર": 4734,
      "▁કાઉ": 4735,
      "▁બહેન": 4736,
      "▁ગુમ": 4737,
      "પુરમાં": 4738,
      "▁પુરાવા": 4739,
      "પૂર": 4740,
      "▁આવ્યુ": 4741,
      "▁જેટલો": 4742,
      "▁કન્ટે": 4743,
      "ક્વિ": 4744,
      "▁પામે": 4745,
      "▁ફેડ": 4746,
      "▁પ્રવાસી": 4747,
      "કાની": 4748,
      "▁શક્યા": 4749,
      "▁શરીરને": 4750,
      "▁રુબેલ્સને": 4751,
      "▁પાય": 4752,
      "▁ખર્": 4753,
      "▁સર્જા": 4754,
      "▁કેટલાંક": 4755,
      "▁બ્લડ": 4756,
      "▁ઓપન": 4757,
      "▁આસપાસના": 4758,
      "ટનો": 4759,
      "▁કશું": 4760,
      "▁મનમાં": 4761,
      "▁સોજો": 4762,
      "▁દુનિયામાં": 4763,
      "▁શાસ": 4764,
      "▁જોતા": 4765,
      "▁ઉલ્લંઘ": 4766,
      "▁લૂંટ": 4767,
      "▁કોફી": 4768,
      "ષે": 4769,
      "▁લાઇન": 4770,
      "▁સીસી": 4771,
      "▁રહેવાની": 4772,
      "▁લેખમાં": 4773,
      "વુડ": 4774,
      "▁લંડ": 4775,
      "▁બેસ્ટ": 4776,
      "▁પ્રેસ": 4777,
      "▁ગુરૂ": 4778,
      "▁સલામત": 4779,
      "▁ખરીદવા": 4780,
      "▁રાય": 4781,
      "▁ચારે": 4782,
      "વિંદ": 4783,
      "એચ": 4784,
      "▁દરો": 4785,
      "▁વ્યાપ": 4786,
      "▁વિગતવાર": 4787,
      "▁લક્ષ્મી": 4788,
      "▁તોડ": 4789,
      "▁દુર": 4790,
      "▁લાગ્યું": 4791,
      "▁વાપરવા": 4792,
      "▁કચેરી": 4793,
      "ન્ગ": 4794,
      "શ્વિક": 4795,
      "▁શિક્ષક": 4796,
      "ક્તો": 4797,
      "ર્સની": 4798,
      "નિશ": 4799,
      "▁ખુલ્લા": 4800,
      "▁અંતમાં": 4801,
      "વાટ": 4802,
      "▁આંકડો": 4803,
      "▁શકીએ": 4804,
      "▁વિટામિન": 4805,
      "▁માછી": 4806,
      "▁નિકા": 4807,
      "▁ધ્વ": 4808,
      "▁લાવી": 4809,
      "ધરી": 4810,
      "▁બચ્ચ": 4811,
      "▁એકસાથે": 4812,
      "લીઓ": 4813,
      "▁ઈચ્છા": 4814,
      "ષ્ઠા": 4815,
      "વવાની": 4816,
      "્યુઅલ": 4817,
      "▁ગેરહા": 4818,
      "▁શાનદાર": 4819,
      "▁ચુકા": 4820,
      "ટુ": 4821,
      "▁તત્વ": 4822,
      "નીતિ": 4823,
      "▁એમને": 4824,
      "▁માસિક": 4825,
      "ડીના": 4826,
      "રબ": 4827,
      "રાઈ": 4828,
      "▁છાતી": 4829,
      "સનીય": 4830,
      "▁નાર": 4831,
      "▁પાકિસ્તાની": 4832,
      "▁સફરજન": 4833,
      "ર્ટે": 4834,
      "રીયા": 4835,
      "▁દીપિકા": 4836,
      "સ્વ": 4837,
      "▁ઉત્સાહ": 4838,
      "▁ધરાવતી": 4839,
      "▁ઉત્પન્ન": 4840,
      "▁બિહાર": 4841,
      "▁વિશ્લેષણ": 4842,
      "હેબ": 4843,
      "ફ્રે": 4844,
      "▁રેતી": 4845,
      "▁ઉમેરી": 4846,
      "▁તકની": 4847,
      "▁રજુ": 4848,
      "▁નસીબ": 4849,
      "તૃત્વ": 4850,
      "તાન": 4851,
      "▁હિંમત": 4852,
      "▁પ્રભુ": 4853,
      "▁પેસ્ટ": 4854,
      "▁અમેરિકાના": 4855,
      "▁નોંધાવી": 4856,
      "▁વ્યાવસાયિક": 4857,
      "▁સપોર્ટ": 4858,
      "▁જારી": 4859,
      "▁અપડે": 4860,
      "▁જેલમાં": 4861,
      "જીવન": 4862,
      "▁ટાપુ": 4863,
      "▁કઠો": 4864,
      "▁વ્યસ્ત": 4865,
      "▁વૈશ્વિક": 4866,
      "▁રાજય": 4867,
      "▁પ્રકારો": 4868,
      "▁પ્રદાન": 4869,
      "▁ફાઇલ": 4870,
      "▁ઉતાર": 4871,
      "▁સુંદરતા": 4872,
      "▁છેલ્લી": 4873,
      "▁હિંસા": 4874,
      "ન્સમાં": 4875,
      "▁પ્રસ્તાવ": 4876,
      "▁નિશાન": 4877,
      "મ્મી": 4878,
      "▁કોઇપણ": 4879,
      "▁કૃપા": 4880,
      "▁અક્ષય": 4881,
      "▁મસાલા": 4882,
      "▁લાય": 4883,
      "સ્ફો": 4884,
      "ંગના": 4885,
      "▁ચોમા": 4886,
      "▁સૂક": 4887,
      "▁પહોંચે": 4888,
      "રૃ": 4889,
      "▁માગે": 4890,
      "▁ડ્રે": 4891,
      "▁વૃક્ષો": 4892,
      "▁ઉતર": 4893,
      "▁મોકલવામાં": 4894,
      "નિયર": 4895,
      "▁સદ": 4896,
      "ડાવી": 4897,
      "▁પર્યાપ્ત": 4898,
      "યમ": 4899,
      "▁વર્ષીય": 4900,
      "▁હેલ્થ": 4901,
      "▁સાર્": 4902,
      "ર્વે": 4903,
      "▁સેટિંગ": 4904,
      "▁કરોડના": 4905,
      "▁ટ્રક": 4906,
      "▁નરમ": 4907,
      "▁ગઠ": 4908,
      "▁શાળામાં": 4909,
      "▁એલિ": 4910,
      "▁દિવસથી": 4911,
      "પાની": 4912,
      "▁પ્રસ": 4913,
      "▁નિરી": 4914,
      "▁પુસ્તકો": 4915,
      "ચ્ચાર": 4916,
      "ભુત": 4917,
      "▁લશ્કરી": 4918,
      "▁જાપાન": 4919,
      "▁દરેકને": 4920,
      "▁દોડી": 4921,
      "▁પાછળથી": 4922,
      "▁પ્રસ્તુત": 4923,
      "▁કપા": 4924,
      "▁મૈ": 4925,
      "▁પુષ્": 4926,
      "▁પડતા": 4927,
      "▁ગાંધ": 4928,
      "▁ક્લિન": 4929,
      "શને": 4930,
      "શ્રી": 4931,
      "ોત્": 4932,
      "યાત્રા": 4933,
      "▁શકું": 4934,
      "▁લાક્ષણિકતા": 4935,
      "નામ": 4936,
      "▁ગાર્ડ": 4937,
      "▁કલાકે": 4938,
      "▁ત્રીજી": 4939,
      "▁બટન": 4940,
      "▁રાખવી": 4941,
      "▁ભાવે": 4942,
      "▁ઘટાડે": 4943,
      "▁ચર્ચામાં": 4944,
      "▁હટ": 4945,
      "સ્લા": 4946,
      "▁ચિત્રો": 4947,
      "▁પ્રકારનું": 4948,
      "▁પ્રવૃત્તિઓ": 4949,
      "્રલ": 4950,
      "▁બાળપણ": 4951,
      "▁ફર્નિચર": 4952,
      "વીય": 4953,
      "▁વધશે": 4954,
      "▁બેઠા": 4955,
      "▁જિંદગી": 4956,
      "▁મેડિકલ": 4957,
      "ડને": 4958,
      "▁કરોડો": 4959,
      "▁કૈ": 4960,
      "▁ખેડૂતોને": 4961,
      "સન્સ": 4962,
      "▁ડોક્ટર": 4963,
      "▁સેન્ટર": 4964,
      "ધ્યા": 4965,
      "▁પવન": 4966,
      "▁તેટ": 4967,
      "▁દેવું": 4968,
      "▁પૂરા": 4969,
      "▁જણાવ્યુ": 4970,
      "▁ભાજપે": 4971,
      "▁વર્ષોથી": 4972,
      "▁પંજાબ": 4973,
      "▁નમૂના": 4974,
      "▁ચડ": 4975,
      "▁ચઢ": 4976,
      "▁એકમાત્ર": 4977,
      "▁પ્રતિભા": 4978,
      "ંજૂર": 4979,
      "ઈન્ટ": 4980,
      "▁બહા": 4981,
      "▁બેઝ": 4982,
      "▁પક્ષી": 4983,
      "▁વિચારી": 4984,
      "▁અર્ધ": 4985,
      "▁બૅ": 4986,
      "▁સ્ટુ": 4987,
      "ગરી": 4988,
      "નોને": 4989,
      "▁કલાકમાં": 4990,
      "▁ફેલાય": 4991,
      "▁ઓર": 4992,
      "▁સલામતી": 4993,
      "▁યુરોપ": 4994,
      "વાયા": 4995,
      "▁છેતર": 4996,
      "ચ્યુઅલ": 4997,
      "પસંદ": 4998,
      "▁વિડિઓ": 4999,
      "▁રાજધાની": 5000,
      "▁ભારતને": 5001,
      "રિટી": 5002,
      "▁વિષે": 5003,
      "▁શુષ્ક": 5004,
      "▁ચલાવી": 5005,
      "▁ગેરકાય": 5006,
      "▁એન્ટિ": 5007,
      "▁અરે": 5008,
      "ર્ણ": 5009,
      "▁જોડાણ": 5010,
      "▁કલે": 5011,
      "▁મંત્ર": 5012,
      "▁પાર્ટન": 5013,
      "▁પાકિસ્તાનના": 5014,
      "▁મચી": 5015,
      "સીબે": 5016,
      "▁અર્થતંત્ર": 5017,
      "▁અવરોધ": 5018,
      "▁પ્રસંગે": 5019,
      "▁ભંગ": 5020,
      "▁ટાળવા": 5021,
      "▁કસ્ટ": 5022,
      "▁સહી": 5023,
      "▁શહી": 5024,
      "▁લડાઈ": 5025,
      "▁નિશ્ચિત": 5026,
      "ટોક": 5027,
      "▁નિયંત્રિત": 5028,
      "▁ફાળો": 5029,
      "▁ડાન્સ": 5030,
      "▁દર્શાવ": 5031,
      "▁અગ": 5032,
      "▁હસ": 5033,
      "▁લાગશે": 5034,
      "▁હંમેશાં": 5035,
      "▁સેક્ટર": 5036,
      "▁ફટકાર": 5037,
      "▁આંદોલન": 5038,
      "▁કલાકાર": 5039,
      "▁નહિં": 5040,
      "▁છોકરીઓ": 5041,
      "▁કૉલ": 5042,
      "▁અશ્": 5043,
      "▁પાટ": 5044,
      "▁ટેપ": 5045,
      "▁ચીઝ": 5046,
      "રૂમમાં": 5047,
      "કુમાર": 5048,
      "દીપ": 5049,
      "▁માર્ગદર્શન": 5050,
      "▁અમેરિકામાં": 5051,
      "▁રેસ્ટોર": 5052,
      "▁આચાર": 5053,
      "▁આવતો": 5054,
      "સ્ટ્ર": 5055,
      "▁ફિલ્મના": 5056,
      "▁ફોટોગ્રા": 5057,
      "▁સંચાલન": 5058,
      "▁વરસા": 5059,
      "▁લાખની": 5060,
      "▁વેપારીઓ": 5061,
      "▁દ્વાર": 5062,
      "▁ગાંધીએ": 5063,
      "ટેક": 5064,
      "જાત": 5065,
      "▁તેનાં": 5066,
      "સ્ટેટ": 5067,
      "▁ચકાસ": 5068,
      "▁ચીફ": 5069,
      "મંડ": 5070,
      "▁ગણાવ": 5071,
      "▁ફિલ્મની": 5072,
      "▁નવરા": 5073,
      "▁દૃષ્ટિ": 5074,
      "▁વોલ્યુમ": 5075,
      "લ્યુ": 5076,
      "▁વાઘ": 5077,
      "▁માફ": 5078,
      "▁ભણ": 5079,
      "▁વાવા": 5080,
      "▁દુશ્": 5081,
      "▁બદલાઈ": 5082,
      "▁કમન": 5083,
      "▁છેવ": 5084,
      "લાની": 5085,
      "▁સ્કોર": 5086,
      "▁જણાવે": 5087,
      "▁કર્ણા": 5088,
      "સંગત": 5089,
      "▁થઈને": 5090,
      "▁મીઠી": 5091,
      "▁સ્પેશ": 5092,
      "▁કેલરી": 5093,
      "▁વિડીયો": 5094,
      "▁સ્વભાવ": 5095,
      "▁માંગણી": 5096,
      "▁થિયેટર": 5097,
      "જ્ય": 5098,
      "▁ત્યાંથી": 5099,
      "▁પૂરો": 5100,
      "હાઇ": 5101,
      "▁બોટ": 5102,
      "▁સ્વરૂ": 5103,
      "▁હિંદુ": 5104,
      "▁મેનેજમેન્ટ": 5105,
      "્યામ": 5106,
      "વળ": 5107,
      "▁સ્ટ્રી": 5108,
      "▁આક્ષેપ": 5109,
      "▁કોડ": 5110,
      "સેટ": 5111,
      "▁લેન્ડ": 5112,
      "▁વ્યક્તિઓ": 5113,
      "ંદન": 5114,
      "▁ખ્રિ": 5115,
      "કોનો": 5116,
      "▁અગાઉના": 5117,
      "▁ડાઉનલોડ": 5118,
      "▁બેન્ડ": 5119,
      "▁ભૂખ": 5120,
      "▁પ્રાઇ": 5121,
      "▁ફાઇન": 5122,
      "ઇના": 5123,
      "ચક": 5124,
      "▁લઘુ": 5125,
      "▁વાસ": 5126,
      "▁પહેરે": 5127,
      "▁જન્મદિવ": 5128,
      "▁બલ્": 5129,
      "▁પાવડ": 5130,
      "▁ઘૂંટ": 5131,
      "▁ગાડી": 5132,
      "▁મિશન": 5133,
      "▁જાડા": 5134,
      "▁કિમી": 5135,
      "▁ફૂડ": 5136,
      "ગ્ને": 5137,
      "▁ઇચ્છિત": 5138,
      "▁સગર્": 5139,
      "▁સિટી": 5140,
      "▁ખેડૂત": 5141,
      "▁તુલના": 5142,
      "લિયન": 5143,
      "▁વાવાઝો": 5144,
      "▁બ્રેડ": 5145,
      "▁મહેસા": 5146,
      "▁ઊંચાઈ": 5147,
      "ંછ": 5148,
      "▁શાસન": 5149,
      "▁સમુદાય": 5150,
      "▁બગીચા": 5151,
      "સ્કે": 5152,
      "મેશ": 5153,
      "▁સ્વસ્થ": 5154,
      "િયામાં": 5155,
      "▁સુધીની": 5156,
      "▁ગ્લો": 5157,
      "ોએ": 5158,
      "▁સૉ": 5159,
      "▁બાળકોની": 5160,
      "▁માંગતા": 5161,
      "▁સ્પર્શ": 5162,
      "▁છી": 5163,
      "▁ઉભી": 5164,
      "વીએ": 5165,
      "▁જેટલું": 5166,
      "▁ક્રોસ": 5167,
      "▁મેળવે": 5168,
      "▁મેળવો": 5169,
      "▁ધરાવ": 5170,
      "▁હાલત": 5171,
      "▁શરૃ": 5172,
      "▁સ્ટાઇ": 5173,
      "▁ખુલાસો": 5174,
      "નારે": 5175,
      "▁ઉઠા": 5176,
      "▁વોટર": 5177,
      "▁છુટ": 5178,
      "▁એટી": 5179,
      "▁દહીં": 5180,
      "▁માર્ગો": 5181,
      "▁હનુ": 5182,
      "▁ખભા": 5183,
      "▁એકમ": 5184,
      "િયત": 5185,
      "કીને": 5186,
      "▁ગુના": 5187,
      "▁રોકાણકારો": 5188,
      "▁રૂા": 5189,
      "▁કર્ણાટક": 5190,
      "લ્લો": 5191,
      "સ્યો": 5192,
      "ર્ગે": 5193,
      "▁જુએ": 5194,
      "▁નોંધણી": 5195,
      "▁ઓફિ": 5196,
      "▁દિવાલ": 5197,
      "▁શકાશે": 5198,
      "ઠે": 5199,
      "જીને": 5200,
      "▁મેઘ": 5201,
      "▁કાર્યક્ષ": 5202,
      "▁માર્ક": 5203,
      "પન": 5204,
      "શલ": 5205,
      "▁ભટ્": 5206,
      "શિપ": 5207,
      "જલ": 5208,
      "▁ગંધ": 5209,
      "▁ખાઈ": 5210,
      "▁ગુજરાતની": 5211,
      "▁મૂર્તિ": 5212,
      "▁કાલે": 5213,
      "▁મનપસંદ": 5214,
      "▁હુક": 5215,
      "▁વર્ષનો": 5216,
      "▁વિશ્વસનીય": 5217,
      "▁શ્રીલ": 5218,
      "▁પકાવવાની": 5219,
      "▁ફિલ્મોમાં": 5220,
      "બ્રે": 5221,
      "▁ચક": 5222,
      "▁જોવામાં": 5223,
      "▁કિડની": 5224,
      "▁વિરૂદ્ધ": 5225,
      "▁પાડવા": 5226,
      "િરા": 5227,
      "▁ઘરના": 5228,
      "▁યુના": 5229,
      "▁પેટા": 5230,
      "▁છેવટે": 5231,
      "દૂ": 5232,
      "▁કેબિ": 5233,
      "▁લેવાય": 5234,
      "▁ચેમ્પિયન": 5235,
      "▁મોં": 5236,
      "▁રચાયેલ": 5237,
      "▁પુનરાવર્તન": 5238,
      "વેટ": 5239,
      "▁કૃષિ": 5240,
      "ટકો": 5241,
      "▁સિને": 5242,
      "પ્પણી": 5243,
      "▁તલ": 5244,
      "▁લક્ષ્ય": 5245,
      "▁સાંભળી": 5246,
      "▁તને": 5247,
      "▁ઇન્સ": 5248,
      "▁અનાજ": 5249,
      "▁કેશ": 5250,
      "▁આવતાં": 5251,
      "્યુલર": 5252,
      "મીર": 5253,
      "▁વેકેશન": 5254,
      "▁નેતૃત્વ": 5255,
      "▁પ્રેક્ટ": 5256,
      "▁ચાહકો": 5257,
      "▁ચમક": 5258,
      "▁ખોટા": 5259,
      "▁સંયોજન": 5260,
      "ાની": 5261,
      "▁ટીકા": 5262,
      "મનાથ": 5263,
      "લાના": 5264,
      "▁પરિમા": 5265,
      "કટર": 5266,
      "છો": 5267,
      "▁શ્": 5268,
      "લીને": 5269,
      "▁લાક્ષણિકતાઓ": 5270,
      "▁ડાયાબ": 5271,
      "▁વિજેતા": 5272,
      "▁બચત": 5273,
      "▁કોર્પો": 5274,
      "▁રજિ": 5275,
      "▁કરાઇ": 5276,
      "િના": 5277,
      "િષ્ઠ": 5278,
      "▁ક્લો": 5279,
      "▁નોંધી": 5280,
      "▁ઉલ્લંઘન": 5281,
      "▁સ્રો": 5282,
      "▁ભાઇ": 5283,
      "▁મુશ્કેલીઓ": 5284,
      "▁મ્યુનિ": 5285,
      "▁અવિ": 5286,
      "▁ખાતર": 5287,
      "▁વસવાટ": 5288,
      "▁સંકળાયેલા": 5289,
      "▁આજના": 5290,
      "▁હૂં": 5291,
      "▁બાળકોના": 5292,
      "▁અંગેની": 5293,
      "હત્યા": 5294,
      "▁માટેનો": 5295,
      "રણે": 5296,
      "▁આનો": 5297,
      "ત્તર": 5298,
      "▁સુસંગત": 5299,
      "▁ગયાં": 5300,
      "▁નીચેની": 5301,
      "▁ઉછ": 5302,
      "રનેશનલ": 5303,
      "▁અલ્પ": 5304,
      "▁અરજ": 5305,
      "▁કાનૂની": 5306,
      "▁હોવો": 5307,
      "ંગો": 5308,
      "▁પરિવારો": 5309,
      "▁ક્વો": 5310,
      "▁અભિગમ": 5311,
      "શિકા": 5312,
      "સલ": 5313,
      "▁નામો": 5314,
      "▁નિર્મા": 5315,
      "▁શૈક્ષણિક": 5316,
      "▁ક્વાર્ટર": 5317,
      "▁વધવા": 5318,
      "▁અંગત": 5319,
      "▁મારું": 5320,
      "ઝની": 5321,
      "વવું": 5322,
      "▁ભાગ્યે": 5323,
      "▁ફ્રેન્ચ": 5324,
      "ટીવી": 5325,
      "▁ડોક્ટ": 5326,
      "▁ચૂક્યા": 5327,
      "▁નજરે": 5328,
      "▁બેક્ટે": 5329,
      "▁ચુસ્ત": 5330,
      "▁એમની": 5331,
      "▁માઉન્ટ": 5332,
      "▁કોસ્": 5333,
      "▁સંભ": 5334,
      "▁અમિતા": 5335,
      "▁પ્રયાસો": 5336,
      "▁વળા": 5337,
      "▁નાટક": 5338,
      "▁બ્લા": 5339,
      "▁રાજ્યોમાં": 5340,
      "ઇસ": 5341,
      "▁ફરજિયાત": 5342,
      "▁પીઠ": 5343,
      "▁પીણું": 5344,
      "▁કોન્ટ્રા": 5345,
      "▁એન્ટ્રી": 5346,
      "▁છૂટા": 5347,
      "▁સાઉથ": 5348,
      "ડિયમ": 5349,
      "ક્તા": 5350,
      "રામાં": 5351,
      "▁યુઝ": 5352,
      "ન્સની": 5353,
      "▁તાજ": 5354,
      "▁વિધાનસભાની": 5355,
      "▁ચોથા": 5356,
      "▁નમ": 5357,
      "▁શાહે": 5358,
      "કલ્પિક": 5359,
      "▁સંજોગોમાં": 5360,
      "ધારણ": 5361,
      "▁કોશિ": 5362,
      "▁બાઇક": 5363,
      "▁જાણીતી": 5364,
      "▁વૈકલ્પિક": 5365,
      "▁ડાયાબિટી": 5366,
      "▁દોઢ": 5367,
      "▁જમણી": 5368,
      "▁ભજવી": 5369,
      "▁એસી": 5370,
      "▁માઈ": 5371,
      "▁નુ": 5372,
      "▁ઇમ": 5373,
      "▁નહોતો": 5374,
      "▁યાદીમાં": 5375,
      "▁દંત": 5376,
      "▁લાવવામાં": 5377,
      "▁વર્તન": 5378,
      "▁દીકરા": 5379,
      "▁પીસી": 5380,
      "▁ચોખા": 5381,
      "▁જવાનું": 5382,
      "બન": 5383,
      "▁થવાના": 5384,
      "▁સૂકા": 5385,
      "▁ક્રિસ": 5386,
      "▁જઈને": 5387,
      "ષ્ટાચાર": 5388,
      "▁ઝેર": 5389,
      "▁ખસેડવામાં": 5390,
      "િવિઝન": 5391,
      "▁હરિયા": 5392,
      "▁હોટલ": 5393,
      "▁વરિષ્ઠ": 5394,
      "ડોશી": 5395,
      "▁ગાજર": 5396,
      "▁અમિતાભ": 5397,
      "▁બાફ": 5398,
      "▁ઝઘ": 5399,
      "▁સીએમ": 5400,
      "▁નોંધ્યું": 5401,
      "▁વોટ": 5402,
      "▁મૂલ્યાં": 5403,
      "▁લોકસભાની": 5404,
      "▁શ્રીલંકા": 5405,
      "▁જાતો": 5406,
      "▁સંપા": 5407,
      "▁પુરી": 5408,
      "વર્ડ": 5409,
      "ષક": 5410,
      "પ્લો": 5411,
      "્સમાં": 5412,
      "▁સ્ટોક": 5413,
      "▁ઝાડ": 5414,
      "▁વૈજ્ઞાનિક": 5415,
      "▁પત": 5416,
      "મેટિક": 5417,
      "▁એક્સપ": 5418,
      "બળ": 5419,
      "રનો": 5420,
      "▁સુશોભન": 5421,
      "▁તપા": 5422,
      "▁હાય": 5423,
      "▁કંટા": 5424,
      "▁અભિપ્ર": 5425,
      "▁કાયમી": 5426,
      "▁કૃષ્ણ": 5427,
      "▁સ્વરૂપો": 5428,
      "વાયો": 5429,
      "▁આપવી": 5430,
      "▁વિભાગે": 5431,
      "▁કોર્પોરેશન": 5432,
      "▁જામીન": 5433,
      "▁કરાય": 5434,
      "▁જીલ્લા": 5435,
      "▁મોદીને": 5436,
      "માના": 5437,
      "▁બાંગ્": 5438,
      "▁એકત્રિત": 5439,
      "ઘટના": 5440,
      "વને": 5441,
      "▁ધુ": 5442,
      "ટીસ": 5443,
      "▁સુરતમાં": 5444,
      "▁પ્રગટ": 5445,
      "▁બિલાડી": 5446,
      "▁ટેલ": 5447,
      "▁સાર્વ": 5448,
      "▁આપવાનો": 5449,
      "ગાવી": 5450,
      "▁આંચ": 5451,
      "િકારી": 5452,
      "▁શપથ": 5453,
      "્યુલ": 5454,
      "▁ભરપૂર": 5455,
      "▁અંગ્રેજી": 5456,
      "▁જલ્": 5457,
      "▁ટન": 5458,
      "રેશ": 5459,
      "▁રાજકોટમાં": 5460,
      "▁આર્મી": 5461,
      "▁ભૂતપૂર્વ": 5462,
      "▁ગયેલા": 5463,
      "ગણ": 5464,
      "▁મુક્તિ": 5465,
      "બેરી": 5466,
      "▁ગ્રાહકોને": 5467,
      "▁નિષ્ફળતા": 5468,
      "▁શસ્ત્ર": 5469,
      "▁નિત": 5470,
      "▁દળો": 5471,
      "▁શહેરી": 5472,
      "▁માલિકો": 5473,
      "▁ટ્રાન્સફર": 5474,
      "▁ચેરમેન": 5475,
      "કું": 5476,
      "્ડ": 5477,
      "▁કોશિકા": 5478,
      "▁ટ્રિ": 5479,
      "▁રોજગાર": 5480,
      "બ્રિ": 5481,
      "▁સજાવ": 5482,
      "▁જાવ": 5483,
      "▁માખ": 5484,
      "▁બાંધવામાં": 5485,
      "▁પોલ": 5486,
      "▁ઇટા": 5487,
      "▁રાખવાની": 5488,
      "ણુ": 5489,
      "▁નફો": 5490,
      "▁પેપર": 5491,
      "▁વિસ્તૃત": 5492,
      "▁જાણતા": 5493,
      "▁બતાવે": 5494,
      "▁બાંગ્લા": 5495,
      "કર્તા": 5496,
      "▁મૂકવા": 5497,
      "▁મંજૂર": 5498,
      "ત્રિમ": 5499,
      "▁એમના": 5500,
      "▁ભાજપની": 5501,
      "▁ધોરણે": 5502,
      "▁મીડિયામાં": 5503,
      "▁અબજ": 5504,
      "▁બર્ન": 5505,
      "▁શૌ": 5506,
      "▁પાછો": 5507,
      "ેક્સ": 5508,
      "▁સામાન": 5509,
      "▁જેણે": 5510,
      "▁અર્થમાં": 5511,
      "▁માણસો": 5512,
      "▁હનુમાન": 5513,
      "બ્લિક": 5514,
      "લાયન્સ": 5515,
      "▁રસોઇ": 5516,
      "▁ફેબ્રિક": 5517,
      "▁તહેવાર": 5518,
      "▁સ્ત્રોત": 5519,
      "▁સસ્પે": 5520,
      "▁લિસ્ટ": 5521,
      "▁એક્સેસ": 5522,
      "▁આત્મહત્યા": 5523,
      "▁ટુકડાઓ": 5524,
      "કૃ": 5525,
      "શનમાં": 5526,
      "▁નીચલા": 5527,
      "▁લાગણીઓ": 5528,
      "પ્ટર": 5529,
      "▁બીએસ": 5530,
      "▁સર્જના": 5531,
      "▁કનેક્ટ": 5532,
      "નમ": 5533,
      "▁આપવાનું": 5534,
      "▁કાક": 5535,
      "▁ભૂલો": 5536,
      "▁રિટ": 5537,
      "સ્તાન": 5538,
      "▁બળા": 5539,
      "ર્સે": 5540,
      "ંડર": 5541,
      "▁અમરેલી": 5542,
      "▁બદલો": 5543,
      "▁ગૌરવ": 5544,
      "▁હડતા": 5545,
      "▁રસી": 5546,
      "▁પોલીસની": 5547,
      "▁બેન": 5548,
      "▁સંકળાયેલ": 5549,
      "▁સીલ": 5550,
      "▁ક્ષેત્રે": 5551,
      "િની": 5552,
      "વાડી": 5553,
      "▁મમ્મી": 5554,
      "▁આવતું": 5555,
      "▁કૃત્રિમ": 5556,
      "▁અંબાણી": 5557,
      "▁સંરક્ષણ": 5558,
      "▁પાચન": 5559,
      "પ્પા": 5560,
      "▁વોર્ડ": 5561,
      "▁ઇન્ટરવ": 5562,
      "▁જોરદાર": 5563,
      "▁જાદુ": 5564,
      "▁ફ્રન્ટ": 5565,
      "▁ત્રાસ": 5566,
      "ઝમ": 5567,
      "લત": 5568,
      "શ્યો": 5569,
      "માન્ડ": 5570,
      "ડાને": 5571,
      "▁ગઠબંધ": 5572,
      "▁ઈન": 5573,
      "▁યથ": 5574,
      "▁વિચારણા": 5575,
      "ાનુ": 5576,
      "▁પ્રિન્ટ": 5577,
      "▁વિદ્યા": 5578,
      "ગેટ": 5579,
      "▁વહીવટી": 5580,
      "▁મૃતદેહ": 5581,
      "▁વરા": 5582,
      "▁ધ્યે": 5583,
      "▁સ્કર્ટ": 5584,
      "▁અંદાજે": 5585,
      "▁સાવચે": 5586,
      "▁ગીતો": 5587,
      "▁સ્પોર્ટ": 5588,
      "▁વિધિ": 5589,
      "▁કોર": 5590,
      "▁રહ્યુ": 5591,
      "▁ખેલાડીઓ": 5592,
      "▁માર્કેટમાં": 5593,
      "ફળી": 5594,
      "▁ચોકલેટ": 5595,
      "▁કેને": 5596,
      "▁ભક્તો": 5597,
      "▁બેટિંગ": 5598,
      "સાની": 5599,
      "▁વરસાદની": 5600,
      "▁ઝેરી": 5601,
      "▁વળાંક": 5602,
      "તરો": 5603,
      "ોબ": 5604,
      "ર્સમાં": 5605,
      "▁પૂછપરછ": 5606,
      "▁તેટલી": 5607,
      "નોની": 5608,
      "▁વર્તુ": 5609,
      "ાર્જ": 5610,
      "▁પત્રકાર": 5611,
      "▁અગત્યનું": 5612,
      "લૂ": 5613,
      "▁માટેનું": 5614,
      "ગ્રહ": 5615,
      "▁ફટકારી": 5616,
      "▁અસરો": 5617,
      "▁દેખાયા": 5618,
      "▁સ્વયં": 5619,
      "▁સગા": 5620,
      "▁માયા": 5621,
      "▁સ્પો": 5622,
      "▁ક્યાંક": 5623,
      "ણંદ": 5624,
      "હારી": 5625,
      "▁પાણીનો": 5626,
      "▁મોદીના": 5627,
      "▁પરેશાન": 5628,
      "્ઝ": 5629,
      "▁મીઠાઈ": 5630,
      "▁પરિમાણો": 5631,
      "કથા": 5632,
      "▁શર્ટ": 5633,
      "▁સ્ને": 5634,
      "▁માર્યા": 5635,
      "કર્તાઓ": 5636,
      "▁વડે": 5637,
      "▁ટીમના": 5638,
      "▁તબક્કે": 5639,
      "▁રેસ્ટોરન્ટ": 5640,
      "રેક્ટ": 5641,
      "દોષ": 5642,
      "▁જેમણે": 5643,
      "▁ભાગીદારી": 5644,
      "▁જ્યોતિ": 5645,
      "▁દલિત": 5646,
      "લીના": 5647,
      "દ્દી": 5648,
      "▁પીળા": 5649,
      "▁દેખાઈ": 5650,
      "▁અસ્થિ": 5651,
      "િંગની": 5652,
      "લબ": 5653,
      "▁લંબ": 5654,
      "▁ખાતા": 5655,
      "વ્યવ": 5656,
      "▁જલ્દી": 5657,
      "▁કટોક": 5658,
      "▁પ્રસાર": 5659,
      "યામ": 5660,
      "▁ચટણી": 5661,
      "▁વિસ્ફો": 5662,
      "કાના": 5663,
      "▁ટ્રેડ": 5664,
      "▁શિક્ષકો": 5665,
      "▁યોજાશે": 5666,
      "▁ટિપ્પણી": 5667,
      "▁પોઈન્ટ": 5668,
      "▁વિલંબ": 5669,
      "▁સર્જનાત્મક": 5670,
      "▁એણે": 5671,
      "▁લોકપ્રિયતા": 5672,
      "▁સ્થાપન": 5673,
      "▁પ્રકા": 5674,
      "▁ઉભ": 5675,
      "▁ભાડે": 5676,
      "ર્સના": 5677,
      "▁મંદી": 5678,
      "▁સૂચનો": 5679,
      "▁પુષ્ટિ": 5680,
      "એશન": 5681,
      "લનો": 5682,
      "▁પની": 5683,
      "જક": 5684,
      "▁માસ્ક": 5685,
      "ટીઓ": 5686,
      "▁કાર્યકરો": 5687,
      "▁પરિવારજનો": 5688,
      "વાહ": 5689,
      "▁ડિસ્ક": 5690,
      "▁તળિયે": 5691,
      "▁જોયા": 5692,
      "▁ભાજપને": 5693,
      "▁મશરૂમ્સ": 5694,
      "▁ગ્રો": 5695,
      "▁સમર્": 5696,
      "▁ઘટક": 5697,
      "સ્કી": 5698,
      "▁સંબોધ": 5699,
      "▁મેસેજ": 5700,
      "▁આડ": 5701,
      "▁કોષ્ટ": 5702,
      "▁ગાંઠ": 5703,
      "▁વિભાગના": 5704,
      "▁મગજ": 5705,
      "ક્ષક": 5706,
      "▁રોષ": 5707,
      "▁હરાવ": 5708,
      "લીમાં": 5709,
      "▁જીવંત": 5710,
      "▁ડેમ": 5711,
      "▁છોડીને": 5712,
      "▁શૈલીમાં": 5713,
      "▁ખર્ચે": 5714,
      "ટકી": 5715,
      "સ્ટા": 5716,
      "▁ટેકો": 5717,
      "▁પડ્યું": 5718,
      "▁શહેરોમાં": 5719,
      "▁મગફળી": 5720,
      "▁યોગદાન": 5721,
      "▁ચિહ્ન": 5722,
      "▁ચૂકવવા": 5723,
      "▁કપાસ": 5724,
      "▁થે": 5725,
      "▁હોર્મો": 5726,
      "▁પોષણ": 5727,
      "▁ઇંગ્લેન્ડ": 5728,
      "ટોપ": 5729,
      "મારે": 5730,
      "સામાં": 5731,
      "▁વર્ગી": 5732,
      "▁બુદ્ધિ": 5733,
      "▁વિનંતી": 5734,
      "▁મહેસાણા": 5735,
      "પૂ": 5736,
      "શન્સ": 5737,
      "▁કેસો": 5738,
      "ક્ષર": 5739,
      "ળાઈ": 5740,
      "ડેજા": 5741,
      "▁સપ": 5742,
      "▁ડીએ": 5743,
      "▁સિરીઝ": 5744,
      "▁માર્ગદર્શ": 5745,
      "▁પક્ષો": 5746,
      "▁જીએસટી": 5747,
      "▁વાપ": 5748,
      "▁સંવાદ": 5749,
      "િલના": 5750,
      "▁તૈયારીઓ": 5751,
      "▁ટકાનો": 5752,
      "ંદર્ય": 5753,
      "▁ગુરુવારે": 5754,
      "▁નિવાસ": 5755,
      "▁કક્ષા": 5756,
      "▁મોદીની": 5757,
      "▁આદર": 5758,
      "▁એલે": 5759,
      "▁વાતાવરણમાં": 5760,
      "▁ગુલાબી": 5761,
      "▁ઉક": 5762,
      "લીપ": 5763,
      "▁ગોલ": 5764,
      "▁આપવું": 5765,
      "ળીઓ": 5766,
      "▁દેશભરમાં": 5767,
      "સર્જન": 5768,
      "▁નિરીક્ષણ": 5769,
      "▁નાનો": 5770,
      "▁આપને": 5771,
      "▁સ્ટાર્": 5772,
      "▁જર્મની": 5773,
      "▁અપડેટ": 5774,
      "▁સોં": 5775,
      "▁અદ્ભુત": 5776,
      "ાયત": 5777,
      "▁ઘટનામાં": 5778,
      "▁અટકાવવા": 5779,
      "▁એક્ટ્રેસ": 5780,
      "▁લાવે": 5781,
      "▁ગઢ": 5782,
      "▁ફિલ": 5783,
      "▁જાડેજા": 5784,
      "▁સોવ": 5785,
      "▁મૂલ્યાંકન": 5786,
      "વેદ": 5787,
      "▁મિનિ": 5788,
      "વાયું": 5789,
      "શાહી": 5790,
      "▁સૌંદર્ય": 5791,
      "▁સમાધાન": 5792,
      "▁ગર્ભા": 5793,
      "સીસી": 5794,
      "મેન્ટમાં": 5795,
      "નેબલ": 5796,
      "ૂપ": 5797,
      "▁ક્યુ": 5798,
      "▁કહો": 5799,
      "▁સહાયક": 5800,
      "▁વિભાજિત": 5801,
      "ંટા": 5802,
      "▁સંકલ": 5803,
      "▁બોન્ડ": 5804,
      "▁ગૂંચ": 5805,
      "▁કવ": 5806,
      "▁ગાયક": 5807,
      "▁સાહેબ": 5808,
      "સ્થાપિત": 5809,
      "▁થયાં": 5810,
      "▁ટ્વિટર": 5811,
      "▁રૂપાણી": 5812,
      "▁જોગવાઈ": 5813,
      "▁આઝા": 5814,
      "ત્રે": 5815,
      "▁કાર્યા": 5816,
      "▁લાગતું": 5817,
      "▁રૂપમાં": 5818,
      "▁વપરાશકર્તાઓ": 5819,
      "▁લાયક": 5820,
      "રાને": 5821,
      "કેલા": 5822,
      "▁આવીને": 5823,
      "ડોર": 5824,
      "▁દલીલ": 5825,
      "▁આવનાર": 5826,
      "ાઇલ": 5827,
      "▁ભરત": 5828,
      "▁દુર્ઘટના": 5829,
      "ધર": 5830,
      "ેડ": 5831,
      "▁હૉ": 5832,
      "▁સાઈ": 5833,
      "▁બેટ્સ": 5834,
      "▁નિવાર": 5835,
      "▁કામો": 5836,
      "▁સીમા": 5837,
      "▁રૂપિયાનો": 5838,
      "▁અભિનય": 5839,
      "▁ડિરેક્ટર": 5840,
      "▁સર્જરી": 5841,
      "▁પ્લેટફોર્મ": 5842,
      "▁ઝોન": 5843,
      "ઇમ": 5844,
      "મણો": 5845,
      "▁ખાવા": 5846,
      "▁શાહી": 5847,
      "▁સર્જન": 5848,
      "▁ફરાર": 5849,
      "▁ભીડ": 5850,
      "▁ટ્વીટ": 5851,
      "▁ક્લિ": 5852,
      "▁ક્રમ": 5853,
      "▁ગોળીઓ": 5854,
      "ગના": 5855,
      "▁પૉ": 5856,
      "▁નોન": 5857,
      "▁ગેમ": 5858,
      "▁વૈજ્ઞાનિકો": 5859,
      "▁હમણાં": 5860,
      "ત્તી": 5861,
      "▁જાળવણી": 5862,
      "▁સ્થળોએ": 5863,
      "▁ઃ": 5864,
      "▁માંગી": 5865,
      "સાઇ": 5866,
      "▁સમયની": 5867,
      "▁નોટો": 5868,
      "▁ડિજ": 5869,
      "મિશન": 5870,
      "▁વોર": 5871,
      "▁રેશ": 5872,
      "▁નિષ્ણાત": 5873,
      "▁કિરણ": 5874,
      "▁દાદા": 5875,
      "ંજામ": 5876,
      "▁મુદ્દાઓ": 5877,
      "▁સેમ": 5878,
      "▁પહોંચ્યો": 5879,
      "▁ફ્લે": 5880,
      "▁બોલિવૂડ": 5881,
      "▁બાંગ્લાદેશ": 5882,
      "ૈતિક": 5883,
      "▁ઘુ": 5884,
      "▁રહેલ": 5885,
      "▁પેનલ": 5886,
      "દ્રો": 5887,
      "▁ખાને": 5888,
      "▁પાવડર": 5889,
      "▁રક્ષા": 5890,
      "▁માફી": 5891,
      "▁હાલના": 5892,
      "▁ટીમને": 5893,
      "▁એમણે": 5894,
      "▁ટાંકી": 5895,
      "▁ફ્રેમ": 5896,
      "▁પૅ": 5897,
      "▁અક્ષરો": 5898,
      "▁ઈશ્વર": 5899,
      "ંખ્ય": 5900,
      "▁નબળી": 5901,
      "▁જણાય": 5902,
      "▁ટીમો": 5903,
      "▁નિકાલ": 5904,
      "વાળ": 5905,
      "ાવતા": 5906,
      "ટાવી": 5907,
      "વિજ્ઞાન": 5908,
      "ક્રે": 5909,
      "રિયલ": 5910,
      "▁બિમારી": 5911,
      "ચુંબર": 5912,
      "▁કચરો": 5913,
      "બ્સ": 5914,
      "▁કણક": 5915,
      "▁ખડ": 5916,
      "▁જીવનની": 5917,
      "▁બધાં": 5918,
      "▁રાજ્યસભા": 5919,
      "▁અહ": 5920,
      "▁ટકી": 5921,
      "▁ફેંક": 5922,
      "▁જન્મે": 5923,
      "▁પ્રેક્ટિસ": 5924,
      "▁કચુંબર": 5925,
      "▁સાંધા": 5926,
      "▁લેવાનું": 5927,
      "બાજુ": 5928,
      "▁લિંક": 5929,
      "▁સંદર્ભે": 5930,
      "શક્તિ": 5931,
      "▁ખેલ": 5932,
      "ન્સને": 5933,
      "▁પાર્ટીના": 5934,
      "▁માખણ": 5935,
      "મતિ": 5936,
      "▁વિવે": 5937,
      "▁બદલાય": 5938,
      "▁ફ્લાઇટ": 5939,
      "▁શેરી": 5940,
      "▁પામ્યા": 5941,
      "ત્મા": 5942,
      "િયાં": 5943,
      "▁ઈંચ": 5944,
      "▁મતદારો": 5945,
      "ઝીલેન્ડ": 5946,
      "▁આશ્ચર્યજનક": 5947,
      "▁આક્રમક": 5948,
      "▁પેકેજ": 5949,
      "▁વચન": 5950,
      "ૃતિક": 5951,
      "▁વાયરસ": 5952,
      "ધારી": 5953,
      "▁ટીમમાં": 5954,
      "▁સદીના": 5955,
      "▁લાઈન": 5956,
      "▁પ્રેશ": 5957,
      "▁થયુ": 5958,
      "▁સમયસર": 5959,
      "▁શોષણ": 5960,
      "▁મેળવવામાં": 5961,
      "▁વરસાદના": 5962,
      "▁પ્રયત્નો": 5963,
      "▁ગેટ્ટી": 5964,
      "▁ત્યા": 5965,
      "▁ડિલ": 5966,
      "સીસ": 5967,
      "વાયેલા": 5968,
      "▁અમદાવાદના": 5969,
      "▁કર્મચારીઓને": 5970,
      "▁કમનસીબે": 5971,
      "ટિન": 5972,
      "બેર": 5973,
      "▁આયાત": 5974,
      "▁રંગીન": 5975,
      "▁જેનું": 5976,
      "દ્દ": 5977,
      "▁કંટ": 5978,
      "▁અભિવ": 5979,
      "▁મહિલાઓને": 5980,
      "▁દસ્તાવેજ": 5981,
      "▁ગુંદર": 5982,
      "▁બનાવશે": 5983,
      "▁અમલી": 5984,
      "▁સંબંધી": 5985,
      "▁ભારતીયો": 5986,
      "વાળો": 5987,
      "▁રેફ": 5988,
      "▁ગરદન": 5989,
      "▁બનાવીને": 5990,
      "ન્ટા": 5991,
      "▁પ્રતિભાવ": 5992,
      "▁દર્શાવવામાં": 5993,
      "▁વાંચી": 5994,
      "▁ફેશનેબલ": 5995,
      "▁મસ્": 5996,
      "▁ઉર્": 5997,
      "કડું": 5998,
      "▁સંગઠન": 5999,
      "કાવી": 6000,
      "▁વધતા": 6001,
      "▁લોડ": 6002,
      "ન્સના": 6003,
      "▁ટમેટા": 6004,
      "▁સ્ટ્રે": 6005,
      "▁હાન": 6006,
      "રેખા": 6007,
      "▁નિપજ": 6008,
      "▁એકમો": 6009,
      "▁બનાસ": 6010,
      "▁છેલ્લાં": 6011,
      "ઝમાં": 6012,
      "▁ચેનલ": 6013,
      "▁ટેકનિક": 6014,
      "▁ભ્રષ્ટાચાર": 6015,
      "▁બૂ": 6016,
      "▁સુધીના": 6017,
      "▁યકૃત": 6018,
      "▁આમંત્રણ": 6019,
      "▁ધીરે": 6020,
      "▁લાઇફ": 6021,
      "રજ": 6022,
      "નાલ્ડ": 6023,
      "▁થવાનું": 6024,
      "▁શહેરની": 6025,
      "▁સમાજમાં": 6026,
      "શની": 6027,
      "▁ઉચ્ચાર": 6028,
      "▁ઠાકોર": 6029,
      "▁ગેરહાજરી": 6030,
      "ચાલ": 6031,
      "▁રાજીનામું": 6032,
      "વાર્ય": 6033,
      "▁કોંગ્રેસની": 6034,
      "▁ગણાય": 6035,
      "▁પૂરક": 6036,
      "▁ચલાવવા": 6037,
      "▁અભિવ્ય": 6038,
      "▁કથ": 6039,
      "ર્વાદ": 6040,
      "▁એમે": 6041,
      "▁વાક": 6042,
      "▁વેગ": 6043,
      "▁અનુમાન": 6044,
      "▁હિન્": 6045,
      "▁જીવનના": 6046,
      "▁ઉત્પાદકો": 6047,
      "ંઝ": 6048,
      "▁લ્યુ": 6049,
      "બીર": 6050,
      "▁પ્રમાણભૂત": 6051,
      "▁પ્રતિબિ": 6052,
      "▁પૂછો": 6053,
      "▁બિલ્ડિંગ": 6054,
      "▁અજય": 6055,
      "▁નંબ": 6056,
      "▁મેડલ": 6057,
      "મ્મદ": 6058,
      "▁પાણીથી": 6059,
      "▁પ્રકાશન": 6060,
      "▁તુલ": 6061,
      "ત્તમ": 6062,
      "▁શરીરની": 6063,
      "▁મેનેજર": 6064,
      "પદ": 6065,
      "▁આની": 6066,
      "▁મમતા": 6067,
      "▁દિન": 6068,
      "કાઈ": 6069,
      "▁ડેસ્ક": 6070,
      "▁પથારી": 6071,
      "દ્યોગ": 6072,
      "▁જતો": 6073,
      "▁લેવું": 6074,
      "▁મિલી": 6075,
      "▁સહકાર": 6076,
      "▁ફ્લેટ": 6077,
      "▁રોકી": 6078,
      "▁લેપ": 6079,
      "▁રેસ": 6080,
      "▁રિપ": 6081,
      "▁મધ્યમાં": 6082,
      "ષ્ણુ": 6083,
      "યૂ": 6084,
      "▁લોખંડ": 6085,
      "▁શોધો": 6086,
      "▁બાંધી": 6087,
      "ડાઇ": 6088,
      "▁ઓક્સિ": 6089,
      "▁અનિવાર્ય": 6090,
      "▁ઘટીને": 6091,
      "▁કારમાં": 6092,
      "શ્વાસ": 6093,
      "▁હિમા": 6094,
      "▁નવીન": 6095,
      "▁ભેળ": 6096,
      "▁ઉંમરે": 6097,
      "▁બચી": 6098,
      "▁એનું": 6099,
      "▁નિકાસ": 6100,
      "▁પ્રદર્શ": 6101,
      "▁ખનિ": 6102,
      "▁ઉપવાસ": 6103,
      "▁છોકરો": 6104,
      "વિન": 6105,
      "▁સેવ": 6106,
      "▁લીડ": 6107,
      "▁ચિંત": 6108,
      "▁બિલ્ડ": 6109,
      "િકારક": 6110,
      "▁તેણીએ": 6111,
      "▁સાઇ": 6112,
      "રૂમ": 6113,
      "▁સિદ્ધિ": 6114,
      "▁ટોચના": 6115,
      "▁કહીએ": 6116,
      "ક્ષકો": 6117,
      "દાયી": 6118,
      "▁ગુલાબ": 6119,
      "▁અનો": 6120,
      "▁કોબી": 6121,
      "લોમાં": 6122,
      "▁શાસ્ત્રી": 6123,
      "▁વિધ": 6124,
      "▁ટર્મ": 6125,
      "▁હેમ": 6126,
      "▁દુષ્ક": 6127,
      "▁વિશ્વની": 6128,
      "▁પેશી": 6129,
      "▁ફાર્મ": 6130,
      "▁અભિપ્રાય": 6131,
      "ક્રા": 6132,
      "ભવી": 6133,
      "વડી": 6134,
      "ર્ટી": 6135,
      "▁સીધો": 6136,
      "▁સ્ટેટ્સ": 6137,
      "▁બ્લે": 6138,
      "▁ગ્રુપ": 6139,
      "▁ભંડોળ": 6140,
      "▁સાઇન": 6141,
      "▁પાથ": 6142,
      "▁નિવેદ": 6143
    },
    "merges": [
      [
        "▁",
        "ક"
      ],
      [
        "મ",
        "ા"
      ],
      [
        "▁",
        "પ"
      ],
      [
        "▁",
        "સ"
      ],
      [
        "▁",
        "છ"
      ],
      [
        "વ",
        "ા"
      ],
      [
        "▁",
        "ત"
      ],
      [
        "ન",
        "ે"
      ],
      [
        "▁છ",
        "ે"
      ],
      [
        "્",
        "ર"
      ],
      [
        "▁",
        "અ"
      ],
      [
        "્",
        "ય"
      ],
      [
        "▁",
        "જ"
      ],
      [
        "▁",
        "આ"
      ],
      [
        "ન",
        "ા"
      ],
      [
        "મા",
        "ં"
      ],
      [
        "ા",
        "ર"
      ],
      [
        "▁",
        "વ"
      ],
      [
        "▁",
        "હ"
      ],
      [
        "▁",
        "મ"
      ],
      [
        "ન",
        "ી"
      ],
      [
        "▁",
        "ર"
      ],
      [
        "▁",
        "બ"
      ],
      [
        "ુ",
        "ં"
      ],
      [
        "▁ક",
        "ર"
      ],
      [
        "ર",
        "્"
      ],
      [
        "▁ત",
        "ે"
      ],
      [
        "▁",
        "એ"
      ],
      [
        "▁",
        "મા"
      ],
      [
        "▁",
        "શ"
      ],
      [
        "▁",
        "ન"
      ],
      [
        "ત",
        "ા"
      ],
      [
        "▁",
        "દ"
      ],
      [
        "▁",
        "લ"
      ],
      [
        "▁અ",
        "ને"
      ],
      [
        "થ",
        "ી"
      ],
      [
        "ટ",
        "ે"
      ],
      [
        "▁ક",
        "ે"
      ],
      [
        "▁",
        "ગ"
      ],
      [
        "સ",
        "્"
      ],
      [
        "ક",
        "્"
      ],
      [
        "લ",
        "ા"
      ],
      [
        "ર",
        "ા"
      ],
      [
        "▁પ",
        "્ર"
      ],
      [
        "ન",
        "્"
      ],
      [
        "ર",
        "ી"
      ],
      [
        "▁સ",
        "ા"
      ],
      [
        "▁પ",
        "ર"
      ],
      [
        "્ય",
        "ા"
      ],
      [
        "ન",
        "ો"
      ],
      [
        "િ",
        "ક"
      ],
      [
        "▁મા",
        "ટે"
      ],
      [
        "▁",
        "ફ"
      ],
      [
        "ય",
        "ા"
      ],
      [
        "▁આ",
        "વ"
      ],
      [
        "▁",
        "ઉ"
      ],
      [
        "▁",
        "ખ"
      ],
      [
        "▁સ",
        "્"
      ],
      [
        "▁",
        "ભ"
      ],
      [
        "▁",
        "ચ"
      ],
      [
        "મ",
        "ે"
      ],
      [
        "▁",
        "થ"
      ],
      [
        "▁વ",
        "િ"
      ],
      [
        "▁હ",
        "ત"
      ],
      [
        "▁એ",
        "ક"
      ],
      [
        "ા",
        "ય"
      ],
      [
        "હ",
        "ે"
      ],
      [
        "▁જ",
        "ે"
      ],
      [
        "ં",
        "ગ"
      ],
      [
        "ક",
        "ો"
      ],
      [
        "વ",
        "ી"
      ],
      [
        "લ",
        "ી"
      ],
      [
        "▁જ",
        "ો"
      ],
      [
        "િ",
        "ત"
      ],
      [
        "શ",
        "ે"
      ],
      [
        "ં",
        "ત"
      ],
      [
        "▁પ",
        "ણ"
      ],
      [
        "વા",
        "માં"
      ],
      [
        "ક",
        "ે"
      ],
      [
        "▁પ",
        "ા"
      ],
      [
        "લ",
        "્"
      ],
      [
        "▁ક",
        "ો"
      ],
      [
        "▁",
        "ટ"
      ],
      [
        "ા",
        "વ"
      ],
      [
        "ય",
        "ો"
      ],
      [
        "ન",
        "ું"
      ],
      [
        "▁કર",
        "ી"
      ],
      [
        "▁હ",
        "ો"
      ],
      [
        "ર",
        "ે"
      ],
      [
        "થ",
        "ે"
      ],
      [
        "▁",
        "ડ"
      ],
      [
        "ત",
        "્"
      ],
      [
        "▁ર",
        "ા"
      ],
      [
        "ણ",
        "ી"
      ],
      [
        "▁સા",
        "થે"
      ],
      [
        "ક",
        "ા"
      ],
      [
        "▁",
        "વા"
      ],
      [
        "િ",
        "યા"
      ],
      [
        "▁",
        "ઘ"
      ],
      [
        "▁",
        "ના"
      ],
      [
        "ત",
        "િ"
      ],
      [
        "લ",
        "ે"
      ],
      [
        "્ય",
        "ો"
      ],
      [
        "▁સ",
        "ં"
      ],
      [
        "વ",
        "ે"
      ],
      [
        "▁તે",
        "મ"
      ],
      [
        "હ",
        "ી"
      ],
      [
        "ત",
        "્ર"
      ],
      [
        "▁મ",
        "ો"
      ],
      [
        "▁સ",
        "મ"
      ],
      [
        "▁",
        "ધ"
      ],
      [
        "▁બ",
        "ા"
      ],
      [
        "ક્",
        "ષ"
      ],
      [
        "્ય",
        "ું"
      ],
      [
        "▁આ",
        "પ"
      ],
      [
        "ર",
        "ો"
      ],
      [
        "▁વ",
        "ધ"
      ],
      [
        "▁ક",
        "ાર"
      ],
      [
        "ાર",
        "ે"
      ],
      [
        "ા",
        "મ"
      ],
      [
        "ત",
        "ી"
      ],
      [
        "ડ",
        "ી"
      ],
      [
        "ા",
        "ન"
      ],
      [
        "ટ",
        "ી"
      ],
      [
        "▁સ",
        "ુ"
      ],
      [
        "ક",
        "ાર"
      ],
      [
        "▁પ",
        "ો"
      ],
      [
        "▁લ",
        "ા"
      ],
      [
        "▁",
        "ઓ"
      ],
      [
        "ણ",
        "ે"
      ],
      [
        "ત",
        "ે"
      ],
      [
        "▁હત",
        "ી"
      ],
      [
        "▁લ",
        "ો"
      ],
      [
        "ર",
        "ૂ"
      ],
      [
        "▁કર",
        "વા"
      ],
      [
        "▁ન",
        "થી"
      ],
      [
        "ડ",
        "ા"
      ],
      [
        "▁બ",
        "ે"
      ],
      [
        "િ",
        "ય"
      ],
      [
        "ં",
        "ધ"
      ],
      [
        "▁ઉ",
        "પ"
      ],
      [
        "▁ત",
        "ો"
      ],
      [
        "ં",
        "દ"
      ],
      [
        "્ર",
        "ે"
      ],
      [
        "▁ત",
        "મા"
      ],
      [
        "જ",
        "ી"
      ],
      [
        "▁",
        "માં"
      ],
      [
        "લ",
        "ો"
      ],
      [
        "▁મ",
        "ે"
      ],
      [
        "▁જ",
        "ા"
      ],
      [
        "▁મ",
        "ુ"
      ],
      [
        "ક",
        "ી"
      ],
      [
        "સ",
        "ે"
      ],
      [
        "▁આવ",
        "ે"
      ],
      [
        "સ",
        "ા"
      ],
      [
        "▁ત",
        "મે"
      ],
      [
        "સ્",
        "ટ"
      ],
      [
        "પ",
        "ા"
      ],
      [
        "▁વ",
        "ર્"
      ],
      [
        "ણ",
        "ા"
      ],
      [
        "ે",
        "શ"
      ],
      [
        "્ર",
        "ી"
      ],
      [
        "▁",
        "ઇ"
      ],
      [
        "ષ",
        "્"
      ],
      [
        "ટ",
        "ા"
      ],
      [
        "ન્",
        "ટ"
      ],
      [
        "ાર",
        "ી"
      ],
      [
        "▁છ",
        "ો"
      ],
      [
        "િ",
        "વ"
      ],
      [
        "ધ",
        "ી"
      ],
      [
        "્ય",
        "ારે"
      ],
      [
        "▁અ",
        "ન"
      ],
      [
        "▁હ",
        "તા"
      ],
      [
        "જ",
        "ા"
      ],
      [
        "દ",
        "ી"
      ],
      [
        "▁ર",
        "ી"
      ],
      [
        "ળ",
        "ી"
      ],
      [
        "સ્",
        "ત"
      ],
      [
        "ં",
        "ચ"
      ],
      [
        "▁હ",
        "ા"
      ],
      [
        "▁હત",
        "ો"
      ],
      [
        "શ",
        "્"
      ],
      [
        "્ય",
        "ુ"
      ],
      [
        "▁મ",
        "હ"
      ],
      [
        "વ",
        "ું"
      ],
      [
        "ભ",
        "ા"
      ],
      [
        "સ",
        "ી"
      ],
      [
        "▁ર",
        "ો"
      ],
      [
        "િ",
        "ંગ"
      ],
      [
        "ાર",
        "્"
      ],
      [
        "▁ભ",
        "ા"
      ],
      [
        "ય",
        "ુ"
      ],
      [
        "▁હો",
        "ય"
      ],
      [
        "ત",
        "ો"
      ],
      [
        "યો",
        "ગ"
      ],
      [
        "દ",
        "્"
      ],
      [
        "▁ન",
        "િ"
      ],
      [
        "▁લ",
        "ે"
      ],
      [
        "▁વધ",
        "ુ"
      ],
      [
        "▁ર",
        "હ"
      ],
      [
        "દ",
        "ા"
      ],
      [
        "▁સ",
        "ર"
      ],
      [
        "છ",
        "ી"
      ],
      [
        "▁ખ",
        "ા"
      ],
      [
        "▁શ",
        "કે"
      ],
      [
        "ન્",
        "ડ"
      ],
      [
        "▁કર",
        "વામાં"
      ],
      [
        "વા",
        "ર"
      ],
      [
        "▁ક",
        "ા"
      ],
      [
        "વ",
        "િ"
      ],
      [
        "મ",
        "ી"
      ],
      [
        "▁કર",
        "ે"
      ],
      [
        "પ",
        "્"
      ],
      [
        "્ર",
        "ા"
      ],
      [
        "શ",
        "ન"
      ],
      [
        "▁કર",
        "ો"
      ],
      [
        "મા",
        "ન"
      ],
      [
        "્યા",
        "ં"
      ],
      [
        "▁સ",
        "ે"
      ],
      [
        "▁રી",
        "તે"
      ],
      [
        "ંત",
        "ુ"
      ],
      [
        "▁",
        "ની"
      ],
      [
        "▁લો",
        "કો"
      ],
      [
        "ળ",
        "ા"
      ],
      [
        "િ",
        "લ્"
      ],
      [
        "્",
        "વા"
      ],
      [
        "▁આવ",
        "ી"
      ],
      [
        "▁સ્",
        "થ"
      ],
      [
        "▁ગ",
        "ુ"
      ],
      [
        "▁સમ",
        "ય"
      ],
      [
        "▁હત",
        "ું"
      ],
      [
        "▁ર",
        "હે"
      ],
      [
        "મ",
        "્"
      ],
      [
        "▁કો",
        "ઈ"
      ],
      [
        "▁વર્",
        "ષ"
      ],
      [
        "▁પર",
        "ંતુ"
      ],
      [
        "ધ",
        "ા"
      ],
      [
        "જ",
        "ે"
      ],
      [
        "▁જ",
        "ી"
      ],
      [
        "ટ",
        "ર"
      ],
      [
        "▁શ",
        "ક"
      ],
      [
        "ગ",
        "ી"
      ],
      [
        "▁બ",
        "ના"
      ],
      [
        "▁પ",
        "છી"
      ],
      [
        "ૂ",
        "ર્"
      ],
      [
        "પ",
        "ી"
      ],
      [
        "ચ",
        "્"
      ],
      [
        "▁અ",
        "થ"
      ],
      [
        "▁ન",
        "ો"
      ],
      [
        "્વા",
        "રા"
      ],
      [
        "▁બ",
        "ી"
      ],
      [
        "વ",
        "ો"
      ],
      [
        "▁દ",
        "્વારા"
      ],
      [
        "બ",
        "ા"
      ],
      [
        "▁અથ",
        "વા"
      ],
      [
        "તા",
        "ં"
      ],
      [
        "▁",
        "યુ"
      ],
      [
        "▁તે",
        "ના"
      ],
      [
        "▁સ",
        "િ"
      ],
      [
        "હી",
        "ં"
      ],
      [
        "▁જ",
        "રૂ"
      ],
      [
        "▁પ",
        "હે"
      ],
      [
        "ન્",
        "સ"
      ],
      [
        "▁થ",
        "ાય"
      ],
      [
        "▁મ",
        "ળ"
      ],
      [
        "▁પ",
        "ે"
      ],
      [
        "▁વ",
        "્ય"
      ],
      [
        "વા",
        "ની"
      ],
      [
        "▁દ",
        "ે"
      ],
      [
        "િ",
        "ન"
      ],
      [
        "બ",
        "ી"
      ],
      [
        "▁પ",
        "ુ"
      ],
      [
        "▁ર",
        "ે"
      ],
      [
        "ડ",
        "ે"
      ],
      [
        "▁તે",
        "ઓ"
      ],
      [
        "ો",
        "લ"
      ],
      [
        "▁સુ",
        "ધી"
      ],
      [
        "▁પર",
        "િ"
      ],
      [
        "▁રા",
        "જ"
      ],
      [
        "શ",
        "ા"
      ],
      [
        "▁ર",
        "ૂ"
      ],
      [
        "▁પો",
        "તા"
      ],
      [
        "ટ",
        "ો"
      ],
      [
        "ાર",
        "ો"
      ],
      [
        "▁ચ",
        "ા"
      ],
      [
        "ર",
        "માં"
      ],
      [
        "્",
        "સ"
      ],
      [
        "ચ",
        "ે"
      ],
      [
        "ર",
        "ણ"
      ],
      [
        "▁ક",
        "ામ"
      ],
      [
        "ક",
        "્ર"
      ],
      [
        "▁",
        "ઝ"
      ],
      [
        "ૂ",
        "ર"
      ],
      [
        "થ",
        "ા"
      ],
      [
        "િ",
        "ટ"
      ],
      [
        "▁શ",
        "ા"
      ],
      [
        "▁દ",
        "ર"
      ],
      [
        "ષ્",
        "ટ"
      ],
      [
        "▁",
        "ઈ"
      ],
      [
        "▁જો",
        "ઈ"
      ],
      [
        "▁વ",
        "ે"
      ],
      [
        "▁ક",
        "િ"
      ],
      [
        "ં",
        "ક"
      ],
      [
        "▁રા",
        "ખ"
      ],
      [
        "▁દ",
        "િવ"
      ],
      [
        "▁સ",
        "ૌ"
      ],
      [
        "▁થ",
        "ઈ"
      ],
      [
        "ચ",
        "ા"
      ],
      [
        "▁પ",
        "ી"
      ],
      [
        "▁ભ",
        "ાર"
      ],
      [
        "▁",
        "ને"
      ],
      [
        "િક",
        "ા"
      ],
      [
        "▁ત",
        "ા"
      ],
      [
        "ર્",
        "ટ"
      ],
      [
        "ે",
        "ર"
      ],
      [
        "▁ઉપ",
        "યોગ"
      ],
      [
        "ં",
        "ડ"
      ],
      [
        "▁સ",
        "ો"
      ],
      [
        "ક્",
        "સ"
      ],
      [
        "▁મ",
        "ૂ"
      ],
      [
        "મ",
        "ો"
      ],
      [
        "▁તમા",
        "રા"
      ],
      [
        "▁ઉ",
        "ત્"
      ],
      [
        "▁મ",
        "ી"
      ],
      [
        "દ્",
        "ધ"
      ],
      [
        "ગ",
        "ે"
      ],
      [
        "▁લ",
        "ી"
      ],
      [
        "▁",
        "ટે"
      ],
      [
        "પ",
        "્ર"
      ],
      [
        "▁સ",
        "ી"
      ],
      [
        "▁કે",
        "ટ"
      ],
      [
        "ુ",
        "ક"
      ],
      [
        "▁ક",
        "્"
      ],
      [
        "જ",
        "ન"
      ],
      [
        "બ",
        "ર"
      ],
      [
        "િ",
        "લ"
      ],
      [
        "હ",
        "ો"
      ],
      [
        "▁ખ",
        "ૂ"
      ],
      [
        "▁લ",
        "ગ"
      ],
      [
        "▁અ",
        "મે"
      ],
      [
        "પ",
        "ો"
      ],
      [
        "સ",
        "ો"
      ],
      [
        "ક્",
        "તિ"
      ],
      [
        "ણ",
        "ો"
      ],
      [
        "▁જ",
        "્યારે"
      ],
      [
        "▁બા",
        "ળ"
      ],
      [
        "સ",
        "ર"
      ],
      [
        "▁ક",
        "ં"
      ],
      [
        "મ",
        "ને"
      ],
      [
        "ન",
        "માં"
      ],
      [
        "ર્",
        "સ"
      ],
      [
        "▁ત",
        "રી"
      ],
      [
        "▁તે",
        "ને"
      ],
      [
        "▁મા",
        "ત્ર"
      ],
      [
        "▁શ",
        "કો"
      ],
      [
        "ગ",
        "ર"
      ],
      [
        "▁બ",
        "ો"
      ],
      [
        "ડ",
        "ો"
      ],
      [
        "▁ફ",
        "ો"
      ],
      [
        "▁તરી",
        "કે"
      ],
      [
        "▁તેમ",
        "ના"
      ],
      [
        "▁શ",
        "ું"
      ],
      [
        "્ર",
        "ો"
      ],
      [
        "▁હ",
        "ે"
      ],
      [
        "ાર",
        "ા"
      ],
      [
        "▁જોઈ",
        "એ"
      ],
      [
        "▁ડ",
        "િ"
      ],
      [
        "▁સ",
        "મા"
      ],
      [
        "ખ",
        "ા"
      ],
      [
        "ે",
        "લા"
      ],
      [
        "▁બા",
        "દ"
      ],
      [
        "▁ખૂ",
        "બ"
      ],
      [
        "▁ર",
        "હી"
      ],
      [
        "▁શ",
        "રૂ"
      ],
      [
        "▁ચ",
        "ો"
      ],
      [
        "પ",
        "ૂર્"
      ],
      [
        "▁પહે",
        "લા"
      ],
      [
        "▁પો",
        "લી"
      ],
      [
        "▁ટ",
        "ી"
      ],
      [
        "ત",
        "ર"
      ],
      [
        "માં",
        "થી"
      ],
      [
        "▁અન",
        "્ય"
      ],
      [
        "▁બના",
        "વ"
      ],
      [
        "▁સૌ",
        "થી"
      ],
      [
        "લા",
        "ક"
      ],
      [
        "ગ",
        "ા"
      ],
      [
        "▁ન",
        "હીં"
      ],
      [
        "▁ફ",
        "િલ્"
      ],
      [
        "▁મહ",
        "િ"
      ],
      [
        "▁તે",
        "ની"
      ],
      [
        "▁શ",
        "ો"
      ],
      [
        "▁પ",
        "ડ"
      ],
      [
        "▁ગ",
        "ા"
      ],
      [
        "▁પ",
        "સ"
      ],
      [
        "▁ક",
        "ુ"
      ],
      [
        "▁કાર",
        "્ય"
      ],
      [
        "▁પા",
        "ણી"
      ],
      [
        "▁અન",
        "ુ"
      ],
      [
        "▁ક",
        "હ"
      ],
      [
        "▁હ",
        "વે"
      ],
      [
        "▁દ",
        "ી"
      ],
      [
        "▁આ",
        "ગ"
      ],
      [
        "હ",
        "ાર"
      ],
      [
        "વા",
        "દ"
      ],
      [
        "▁સા",
        "મે"
      ],
      [
        "ન",
        "િ"
      ],
      [
        "▁",
        "ઊ"
      ],
      [
        "દ",
        "ેશ"
      ],
      [
        "▁ચ",
        "ૂ"
      ],
      [
        "▁જરૂ",
        "ર"
      ],
      [
        "ા",
        "ઇ"
      ],
      [
        "હ",
        "િત"
      ],
      [
        "▁",
        "થી"
      ],
      [
        "ણ",
        "ાવ"
      ],
      [
        "ચ",
        "ાર"
      ],
      [
        "▁અ",
        "ભ"
      ],
      [
        "▁કાર",
        "ણ"
      ],
      [
        "થ",
        "મ"
      ],
      [
        "▁અ",
        "લ"
      ],
      [
        "▁દ",
        "ેશ"
      ],
      [
        "ક્",
        "ત"
      ],
      [
        "્ર",
        "ણ"
      ],
      [
        "▁દ",
        "ુ"
      ],
      [
        "પ",
        "ે"
      ],
      [
        "▁કાર",
        "ણે"
      ],
      [
        "ના",
        "ં"
      ],
      [
        "સ્",
        "તા"
      ],
      [
        "▁વિ",
        "શે"
      ],
      [
        "▁તેમ",
        "ણે"
      ],
      [
        "▁ભા",
        "ગ"
      ],
      [
        "જ",
        "ુ"
      ],
      [
        "▁ક",
        "હે"
      ],
      [
        "▁ત",
        "્યારે"
      ],
      [
        "▁વા",
        "ત"
      ],
      [
        "ન્",
        "દ"
      ],
      [
        "▁જ",
        "વા"
      ],
      [
        "▁ત",
        "્યાં"
      ],
      [
        "▁સ્",
        "વ"
      ],
      [
        "▁અ",
        "મ"
      ],
      [
        "▁જી",
        "વ"
      ],
      [
        "લ",
        "િ"
      ],
      [
        "ક્",
        "ટ"
      ],
      [
        "માન",
        "્ય"
      ],
      [
        "પ",
        "ની"
      ],
      [
        "બ",
        "ંધ"
      ],
      [
        "▁દિવ",
        "સ"
      ],
      [
        "શ",
        "ો"
      ],
      [
        "ર્",
        "ડ"
      ],
      [
        "ર્",
        "થ"
      ],
      [
        "▁આ",
        "ધ"
      ],
      [
        "▁કર",
        "્યો"
      ],
      [
        "બ",
        "્"
      ],
      [
        "ર",
        "ફ"
      ],
      [
        "ત",
        "માં"
      ],
      [
        "ં",
        "ટ"
      ],
      [
        "વા",
        "નું"
      ],
      [
        "હ",
        "ા"
      ],
      [
        "▁પ",
        "ૂ"
      ],
      [
        "▁પ્ર",
        "ો"
      ],
      [
        "▁પ્ર",
        "ા"
      ],
      [
        "▁રહ",
        "્યા"
      ],
      [
        "▁સર",
        "કાર"
      ],
      [
        "▁મ",
        "ળી"
      ],
      [
        "ે",
        "લ"
      ],
      [
        "▁ર",
        "િ"
      ],
      [
        "સ્",
        "થ"
      ],
      [
        "ગ",
        "્ર"
      ],
      [
        "છ",
        "ા"
      ],
      [
        "ઓ",
        "ને"
      ],
      [
        "ય",
        "ું"
      ],
      [
        "▁કહ",
        "્યું"
      ],
      [
        "લ",
        "માં"
      ],
      [
        "પૂર્",
        "ણ"
      ],
      [
        "ક્ષ",
        "ા"
      ],
      [
        "▁પા",
        "સે"
      ],
      [
        "▁દર",
        "મ"
      ],
      [
        "▁પ્ર",
        "થમ"
      ],
      [
        "▁સ",
        "ૂ"
      ],
      [
        "▁જ",
        "ુ"
      ],
      [
        "▁તેમ",
        "ને"
      ],
      [
        "▁ઘ",
        "ણા"
      ],
      [
        "ળ",
        "ો"
      ],
      [
        "▁ગ",
        "ો"
      ],
      [
        "▁ભ",
        "ૂ"
      ],
      [
        "ં",
        "ભ"
      ],
      [
        "રે",
        "ક"
      ],
      [
        "ત્ર",
        "ી"
      ],
      [
        "▁જ",
        "ણાવ"
      ],
      [
        "▁ડ",
        "ે"
      ],
      [
        "શ",
        "ી"
      ],
      [
        "▁નો",
        "ંધ"
      ],
      [
        "▁બ",
        "દ"
      ],
      [
        "▁સા",
        "માન્ય"
      ],
      [
        "▁પસ",
        "ંદ"
      ],
      [
        "િયા",
        "ન"
      ],
      [
        "▁તમા",
        "મ"
      ],
      [
        "▁વ્ય",
        "ક્તિ"
      ],
      [
        "▁વ",
        "ખ"
      ],
      [
        "▁શક",
        "ાય"
      ],
      [
        "દ",
        "ન"
      ],
      [
        "▁મા",
        "ન"
      ],
      [
        "▁જ",
        "ાય"
      ],
      [
        "▁મુ",
        "ખ"
      ],
      [
        "▁ઘ",
        "ટ"
      ],
      [
        "ત્",
        "વ"
      ],
      [
        "▁મે",
        "ળ"
      ],
      [
        "▁મા",
        "ર્"
      ],
      [
        "▁બ",
        "ધા"
      ],
      [
        "વા",
        "નો"
      ],
      [
        "▁દ",
        "રેક"
      ],
      [
        "વ",
        "ર"
      ],
      [
        "▁કરી",
        "ને"
      ],
      [
        "▁ફ",
        "ે"
      ],
      [
        "▁એ",
        "ટ"
      ],
      [
        "▁નિ",
        "ર્"
      ],
      [
        "િત",
        "િ"
      ],
      [
        "▁ફિલ્",
        "મ"
      ],
      [
        "ર",
        "ુ"
      ],
      [
        "▁વિ",
        "સ્ત"
      ],
      [
        "દ",
        "ર"
      ],
      [
        "▁પ",
        "ગ"
      ],
      [
        "્રે",
        "સ"
      ],
      [
        "▁આ",
        "જે"
      ],
      [
        "▁જો",
        "વા"
      ],
      [
        "▁થ",
        "ો"
      ],
      [
        "▁આપ",
        "ી"
      ],
      [
        "લ",
        "ુ"
      ],
      [
        "▁ત",
        "ૈ"
      ],
      [
        "▁પ",
        "હો"
      ],
      [
        "ર્",
        "મ"
      ],
      [
        "▁મો",
        "ટા"
      ],
      [
        "સ",
        "િ"
      ],
      [
        "▁ત",
        "મને"
      ],
      [
        "▁દ",
        "ા"
      ],
      [
        "જ",
        "ો"
      ],
      [
        "ૃ",
        "ત"
      ],
      [
        "▁હ",
        "ું"
      ],
      [
        "મ",
        "ત"
      ],
      [
        "▁મ",
        "િ"
      ],
      [
        "ક્ષ",
        "ણ"
      ],
      [
        "▁સ",
        "ર્"
      ],
      [
        "▁મુખ",
        "્ય"
      ],
      [
        "▁લા",
        "ગ"
      ],
      [
        "▁વ",
        "ી"
      ],
      [
        "▁ખ",
        "ુ"
      ],
      [
        "▁દરમ",
        "િયાન"
      ],
      [
        "▁પ",
        "્"
      ],
      [
        "▁થ",
        "ઇ"
      ],
      [
        "▁પ્ર",
        "કાર"
      ],
      [
        "▁હા",
        "થ"
      ],
      [
        "▁સ",
        "ફ"
      ],
      [
        "▁ગ",
        "યા"
      ],
      [
        "▁",
        "યા"
      ],
      [
        "▁પોલી",
        "સ"
      ],
      [
        "▁ક",
        "્ર"
      ],
      [
        "▁ના",
        "મ"
      ],
      [
        "ર",
        "ના"
      ],
      [
        "▁કં",
        "પની"
      ],
      [
        "▁તે",
        "થી"
      ],
      [
        "▁જરૂ",
        "રી"
      ],
      [
        "▁પોતા",
        "ના"
      ],
      [
        "▁અ",
        "ંત"
      ],
      [
        "▁તૈ",
        "ય"
      ],
      [
        "દ",
        "ો"
      ],
      [
        "વા",
        "રે"
      ],
      [
        "▁બ",
        "ની"
      ],
      [
        "▁ખા",
        "સ"
      ],
      [
        "▁ઓ",
        "ફ"
      ],
      [
        "પા",
        "સ"
      ],
      [
        "▁કેટ",
        "લાક"
      ],
      [
        "▁અલ",
        "ગ"
      ],
      [
        "જ",
        "રા"
      ],
      [
        "▁ખ",
        "ો"
      ],
      [
        "▁કરવા",
        "ની"
      ],
      [
        "▁કે",
        "વી"
      ],
      [
        "▁અ",
        "ધ"
      ],
      [
        "▁તમા",
        "રી"
      ],
      [
        "ગ",
        "ો"
      ],
      [
        "▁વ",
        "ચ્"
      ],
      [
        "▁",
        "યો"
      ],
      [
        "▁",
        "ઠ"
      ],
      [
        "જ",
        "બ"
      ],
      [
        "પ",
        "ુ"
      ],
      [
        "▁વચ્",
        "ચે"
      ],
      [
        "ચ",
        "ી"
      ],
      [
        "▁ફ",
        "ર"
      ],
      [
        "▁ટ",
        "કા"
      ],
      [
        "▁ચ",
        "ે"
      ],
      [
        "▁",
        "યોગ"
      ],
      [
        "▁સ",
        "ાર"
      ],
      [
        "▁તેમ",
        "ની"
      ],
      [
        "▁પ્ર",
        "તિ"
      ],
      [
        "પ",
        "ણ"
      ],
      [
        "મ",
        "િ"
      ],
      [
        "▁પ્ર",
        "ે"
      ],
      [
        "ગ",
        "ત"
      ],
      [
        "વા",
        "ન"
      ],
      [
        "▁જે",
        "માં"
      ],
      [
        "વિ",
        "ધ"
      ],
      [
        "▁ગુ",
        "જરા"
      ],
      [
        "▁દ",
        "ો"
      ],
      [
        "▁વ",
        "િક"
      ],
      [
        "▁કર",
        "્યું"
      ],
      [
        "ન્દ",
        "્ર"
      ],
      [
        "▁ભાર",
        "ત"
      ],
      [
        "▁પહો",
        "ંચ"
      ],
      [
        "▁દ",
        "ર્"
      ],
      [
        "દ",
        "દ"
      ],
      [
        "▁બ",
        "હાર"
      ],
      [
        "લ",
        "િક"
      ],
      [
        "સ્",
        "થા"
      ],
      [
        "▁વિ",
        "શ્"
      ],
      [
        "▁કર",
        "તા"
      ],
      [
        "▁ન",
        "િય"
      ],
      [
        "▁લ",
        "ઈ"
      ],
      [
        "▁અ",
        "ંગ"
      ],
      [
        "▁સ્",
        "પ"
      ],
      [
        "▁કર",
        "શે"
      ],
      [
        "લ",
        "ું"
      ],
      [
        "▁બ",
        "ંધ"
      ],
      [
        "▁ર",
        "ંગ"
      ],
      [
        "▁હ",
        "િ"
      ],
      [
        "ન",
        "ની"
      ],
      [
        "ત",
        "ું"
      ],
      [
        "દ",
        "ાર"
      ],
      [
        "ધ",
        "ાન"
      ],
      [
        "▁ત",
        "્રણ"
      ],
      [
        "▁ધ",
        "રા"
      ],
      [
        "ક",
        "રી"
      ],
      [
        "▁દ",
        "ૂર"
      ],
      [
        "▁આવ",
        "્યા"
      ],
      [
        "▁ઉત્",
        "પા"
      ],
      [
        "▁વ",
        "ર"
      ],
      [
        "▁મ",
        "દદ"
      ],
      [
        "▁એ",
        "મ"
      ],
      [
        "▁જે",
        "મ"
      ],
      [
        "▁ખ",
        "ે"
      ],
      [
        "ર",
        "ની"
      ],
      [
        "ક",
        "િ"
      ],
      [
        "▁જ",
        "ૂ"
      ],
      [
        "▁આવ",
        "્યો"
      ],
      [
        "▁સર",
        "ળ"
      ],
      [
        "બ",
        "ે"
      ],
      [
        "વા",
        "ય"
      ],
      [
        "▁શ",
        "િ"
      ],
      [
        "▁આવ",
        "શે"
      ],
      [
        "જ",
        "ના"
      ],
      [
        "ક",
        "સ"
      ],
      [
        "▁રૂ",
        "પ"
      ],
      [
        "▁આપ",
        "ે"
      ],
      [
        "િય",
        "ન"
      ],
      [
        "ખ",
        "્યા"
      ],
      [
        "▁બ",
        "િ"
      ],
      [
        "મ",
        "ક"
      ],
      [
        "▁થ",
        "શે"
      ],
      [
        "▁બાળ",
        "કો"
      ],
      [
        "▁જા",
        "ણ"
      ],
      [
        "▁અ",
        "હીં"
      ],
      [
        "▁ત",
        "રફ"
      ],
      [
        "દ",
        "ે"
      ],
      [
        "▁ભ",
        "ાવ"
      ],
      [
        "ૂ",
        "ત"
      ],
      [
        "▁બ",
        "ન"
      ],
      [
        "ંત",
        "્ર"
      ],
      [
        "▁મહિ",
        "લા"
      ],
      [
        "ડ",
        "િ"
      ],
      [
        "પ",
        "રા"
      ],
      [
        "▁અ",
        "સર"
      ],
      [
        "▁પ",
        "ૂર્"
      ],
      [
        "દ",
        "ર્"
      ],
      [
        "▁સ્",
        "ટ"
      ],
      [
        "▁કર",
        "તાં"
      ],
      [
        "ા",
        "ઈ"
      ],
      [
        "ષ્",
        "ઠ"
      ],
      [
        "જ",
        "્"
      ],
      [
        "ી",
        "એ"
      ],
      [
        "▁જા",
        "હે"
      ],
      [
        "▁ધ",
        "્યા"
      ],
      [
        "▁સા",
        "મ"
      ],
      [
        "▁મો",
        "દી"
      ],
      [
        "ં",
        "બા"
      ],
      [
        "▁થ",
        "યો"
      ],
      [
        "ડ",
        "િયા"
      ],
      [
        "▁વિ",
        "વિધ"
      ],
      [
        "વે",
        "શ"
      ],
      [
        "▁ગ",
        "્ર"
      ],
      [
        "▁કો",
        "ંગ"
      ],
      [
        "▁ઘ",
        "ણી"
      ],
      [
        "એ",
        "સ"
      ],
      [
        "▁ક્",
        "ષ"
      ],
      [
        "ત",
        "્ય"
      ],
      [
        "▁શ",
        "હે"
      ],
      [
        "ન",
        "િક"
      ],
      [
        "પ",
        "ર"
      ],
      [
        "▁હ",
        "શે"
      ],
      [
        "પ્",
        "ત"
      ],
      [
        "જ",
        "ાર"
      ],
      [
        "ભ",
        "ાવ"
      ],
      [
        "▁કરો",
        "ડ"
      ],
      [
        "▁ગ",
        "ર"
      ],
      [
        "▁ઉપ",
        "ર"
      ],
      [
        "▁ક",
        "પ"
      ],
      [
        "▁સ્",
        "ટે"
      ],
      [
        "▁બ",
        "ં"
      ],
      [
        "્",
        "ન"
      ],
      [
        "હ",
        "ુ"
      ],
      [
        "▁આવ",
        "્યું"
      ],
      [
        "▁ભા",
        "જ"
      ],
      [
        "લ્",
        "સ"
      ],
      [
        "ઓ",
        "માં"
      ],
      [
        "▁કર",
        "્યા"
      ],
      [
        "▁ઉ",
        "મે"
      ],
      [
        "▁રાજ",
        "્ય"
      ],
      [
        "વ",
        "વા"
      ],
      [
        "▁સુ",
        "ર"
      ],
      [
        "સ્ત",
        "ુ"
      ],
      [
        "ાય",
        "ો"
      ],
      [
        "મ",
        "માં"
      ],
      [
        "જ",
        "ૂ"
      ],
      [
        "▁શ",
        "્રે"
      ],
      [
        "મે",
        "ન્ટ"
      ],
      [
        "▁ખ",
        "રી"
      ],
      [
        "▁ટ",
        "ો"
      ],
      [
        "ખ",
        "ી"
      ],
      [
        "ફ",
        "ો"
      ],
      [
        "▁ઘટ",
        "ના"
      ],
      [
        "પ",
        "ના"
      ],
      [
        "▁",
        "ય"
      ],
      [
        "▁દ",
        "િ"
      ],
      [
        "▁આ",
        "રો"
      ],
      [
        "ચ",
        "ના"
      ],
      [
        "▁રહ",
        "્યો"
      ],
      [
        "્ય",
        "ૂ"
      ],
      [
        "જ",
        "ર"
      ],
      [
        "▁પ",
        "ાર્"
      ],
      [
        "વ",
        "ણી"
      ],
      [
        "▁ઝ",
        "ડ"
      ],
      [
        "▁ડ",
        "ો"
      ],
      [
        "▁લા",
        "ખ"
      ],
      [
        "બ",
        "ો"
      ],
      [
        "▁પ્ર",
        "મા"
      ],
      [
        "▁આ",
        "વા"
      ],
      [
        "▁પોતા",
        "ની"
      ],
      [
        "▁સં",
        "પૂર્ણ"
      ],
      [
        "▁બં",
        "ને"
      ],
      [
        "▁થ",
        "યા"
      ],
      [
        "▁ચૂ",
        "ંટ"
      ],
      [
        "િ",
        "સ"
      ],
      [
        "ે",
        "ટ"
      ],
      [
        "▁ફ",
        "રી"
      ],
      [
        "▁બે",
        "ઠ"
      ],
      [
        "મ્",
        "પ"
      ],
      [
        "સ્",
        "પ"
      ],
      [
        "▁જીવ",
        "ન"
      ],
      [
        "ર",
        "ને"
      ],
      [
        "સ્",
        "ક"
      ],
      [
        "▁સ",
        "હ"
      ],
      [
        "▁તૈય",
        "ાર"
      ],
      [
        "▁મહ",
        "ત્વ"
      ],
      [
        "ામ",
        "ી"
      ],
      [
        "▁મળ",
        "ે"
      ],
      [
        "▁સ",
        "ારી"
      ],
      [
        "▁શ",
        "રી"
      ],
      [
        "▁વ્ય",
        "વ"
      ],
      [
        "તા",
        "ઓ"
      ],
      [
        "લ્",
        "ડ"
      ],
      [
        "▁સમય",
        "ે"
      ],
      [
        "▁ની",
        "ચે"
      ],
      [
        "▁ચૂંટ",
        "ણી"
      ],
      [
        "ધ",
        "ો"
      ],
      [
        "ઇ",
        "ટ"
      ],
      [
        "ચ્",
        "છ"
      ],
      [
        "ર્",
        "ષ"
      ],
      [
        "▁પહેલા",
        "ં"
      ],
      [
        "▁યોગ",
        "્ય"
      ],
      [
        "▁પ્ર",
        "વા"
      ],
      [
        "▁વ",
        "ો"
      ],
      [
        "▁હો",
        "વા"
      ],
      [
        "િ",
        "તા"
      ],
      [
        "▁આધ",
        "ાર"
      ],
      [
        "▁કોંગ",
        "્રેસ"
      ],
      [
        "▁આપ",
        "વામાં"
      ],
      [
        "▁અધ",
        "િક"
      ],
      [
        "▁કો",
        "ઇ"
      ],
      [
        "▁રો",
        "જ"
      ],
      [
        "ગ",
        "્રી"
      ],
      [
        "▁સં",
        "બંધ"
      ],
      [
        "▁વિસ્ત",
        "ાર"
      ],
      [
        "સ",
        "્યા"
      ],
      [
        "▁જણાવ",
        "્યું"
      ],
      [
        "▁ન",
        "વા"
      ],
      [
        "લ્",
        "લા"
      ],
      [
        "▁જો",
        "કે"
      ],
      [
        "▁વા",
        "ર"
      ],
      [
        "▁રૂપ",
        "િયા"
      ],
      [
        "ત",
        "ુ"
      ],
      [
        "▁વ",
        "્યા"
      ],
      [
        "્",
        "વ"
      ],
      [
        "ગ",
        "્યા"
      ],
      [
        "▁શ",
        "ુ"
      ],
      [
        "શ",
        "િ"
      ],
      [
        "દ",
        "્ય"
      ],
      [
        "ક",
        "રણ"
      ],
      [
        "ઓ",
        "ની"
      ],
      [
        "ંત",
        "્રી"
      ],
      [
        "▁ધ",
        "ો"
      ],
      [
        "▁તેમ",
        "જ"
      ],
      [
        "▁બી",
        "જા"
      ],
      [
        "▁અ",
        "પ"
      ],
      [
        "ચ",
        "ર"
      ],
      [
        "્ર",
        "િ"
      ],
      [
        "▁વધ",
        "ારે"
      ],
      [
        "▁ચ",
        "ી"
      ],
      [
        "▁જવા",
        "બ"
      ],
      [
        "ન",
        "ના"
      ],
      [
        "▁વખ",
        "ત"
      ],
      [
        "ત્",
        "તા"
      ],
      [
        "સ",
        "માં"
      ],
      [
        "સા",
        "દ"
      ],
      [
        "ર્",
        "ક"
      ],
      [
        "▁બાળ",
        "ક"
      ],
      [
        "મ",
        "ુ"
      ],
      [
        "ટે",
        "લ"
      ],
      [
        "ક",
        "લ"
      ],
      [
        "▁સ્થ",
        "ા"
      ],
      [
        "▁સમ",
        "સ્યા"
      ],
      [
        "▁ટ",
        "્રે"
      ],
      [
        "▁શક",
        "્ય"
      ],
      [
        "▁ફ",
        "ૂ"
      ],
      [
        "▁ડ",
        "ી"
      ],
      [
        "દ",
        "ાન"
      ],
      [
        "▁સ્થ",
        "િતિ"
      ],
      [
        "સ્",
        "સા"
      ],
      [
        "ત",
        "રી"
      ],
      [
        "ક્ર",
        "િયા"
      ],
      [
        "▁મો",
        "ટી"
      ],
      [
        "બ",
        "લ"
      ],
      [
        "▁અંગ",
        "ે"
      ],
      [
        "▁આ",
        "મ"
      ],
      [
        "▁વિશ્",
        "વ"
      ],
      [
        "▁ગ",
        "યો"
      ],
      [
        "▁ન",
        "વી"
      ],
      [
        "ત્",
        "મક"
      ],
      [
        "▁પ",
        "ડે"
      ],
      [
        "ં",
        "કા"
      ],
      [
        "▁જ",
        "્યાં"
      ],
      [
        "ું",
        "બ"
      ],
      [
        "▁ઘ",
        "ટા"
      ],
      [
        "▁ર",
        "સ"
      ],
      [
        "ં",
        "ખ"
      ],
      [
        "▁એટ",
        "લે"
      ],
      [
        "▁વ",
        "સ્તુ"
      ],
      [
        "▁ઉપ",
        "રા"
      ],
      [
        "ર્",
        "ચ"
      ],
      [
        "સ",
        "ાર"
      ],
      [
        "▁ત",
        "પાસ"
      ],
      [
        "ે",
        "લી"
      ],
      [
        "તી",
        "ય"
      ],
      [
        "▁રહ",
        "્યું"
      ],
      [
        "▁હો",
        "ઈ"
      ],
      [
        "▁સાર",
        "વાર"
      ],
      [
        "ક",
        "ર"
      ],
      [
        "▁સ્થ",
        "ાન"
      ],
      [
        "ઇ",
        "ન"
      ],
      [
        "ભ",
        "ગ"
      ],
      [
        "▁આગ",
        "ળ"
      ],
      [
        "ર",
        "િક"
      ],
      [
        "વા",
        "ના"
      ],
      [
        "▁છ",
        "ીએ"
      ],
      [
        "▁મ",
        "ધ"
      ],
      [
        "▁જે",
        "થી"
      ],
      [
        "▁ફ",
        "્"
      ],
      [
        "▁લા",
        "ગે"
      ],
      [
        "ટ",
        "્સ"
      ],
      [
        "પ",
        "ણે"
      ],
      [
        "હ",
        "િ"
      ],
      [
        "▁અ",
        "ંદ"
      ],
      [
        "▁દે",
        "ખ"
      ],
      [
        "▁કર",
        "્"
      ],
      [
        "▁લગ",
        "ભગ"
      ],
      [
        "▁સ",
        "ંગ"
      ],
      [
        "▁અ",
        "વ"
      ],
      [
        "▁સ્",
        "ક"
      ],
      [
        "▁ગુજરા",
        "ત"
      ],
      [
        "▁બ",
        "ોલ"
      ],
      [
        "િત",
        "્ર"
      ],
      [
        "▁ઉપરા",
        "ંત"
      ],
      [
        "▁બ",
        "્"
      ],
      [
        "ો",
        "માં"
      ],
      [
        "ક્",
        "ટર"
      ],
      [
        "▁ગ",
        "ઈ"
      ],
      [
        "ના",
        "ર"
      ],
      [
        "▁ચ",
        "િ"
      ],
      [
        "▁પ્ર",
        "ક્રિયા"
      ],
      [
        "ભા",
        "ગ"
      ],
      [
        "▁મા",
        "તા"
      ],
      [
        "ુ",
        "મ"
      ],
      [
        "▁અને",
        "ક"
      ],
      [
        "▁અ",
        "ર્થ"
      ],
      [
        "▁પા",
        "છ"
      ],
      [
        "▁છ",
        "તાં"
      ],
      [
        "શ્",
        "કે"
      ],
      [
        "▁મ",
        "ને"
      ],
      [
        "ઇ",
        "એ"
      ],
      [
        "લ",
        "ના"
      ],
      [
        "▁ગ",
        "ામ"
      ],
      [
        "▁વ",
        "ૃ"
      ],
      [
        "ાર્",
        "થી"
      ],
      [
        "▁ગ",
        "ણ"
      ],
      [
        "▁લો",
        "ક"
      ],
      [
        "▁શ",
        "ે"
      ],
      [
        "▁ભ",
        "ર"
      ],
      [
        "ં",
        "સ"
      ],
      [
        "▁ક",
        "્યારે"
      ],
      [
        "પો",
        "ર્ટ"
      ],
      [
        "િ",
        "ર"
      ],
      [
        "▁કાર",
        "્"
      ],
      [
        "▁ના",
        "ના"
      ],
      [
        "▁રહે",
        "શે"
      ],
      [
        "ટ",
        "ક"
      ],
      [
        "▁વિ",
        "ચાર"
      ],
      [
        "ન",
        "ુ"
      ],
      [
        "▁ડ",
        "ા"
      ],
      [
        "▁લે",
        "વા"
      ],
      [
        "ળ",
        "તા"
      ],
      [
        "▁પા",
        "ંચ"
      ],
      [
        "જ્",
        "ઞ"
      ],
      [
        "▁ગ",
        "ે"
      ],
      [
        "▁તે",
        "માં"
      ],
      [
        "▁મ",
        "હે"
      ],
      [
        "કિ",
        "સ્તા"
      ],
      [
        "▁જ",
        "ગ્યા"
      ],
      [
        "▁ધ",
        "ર"
      ],
      [
        "▁લ",
        "ક્ષ"
      ],
      [
        "▁અ",
        "મા"
      ],
      [
        "ત",
        "ન"
      ],
      [
        "િલ્",
        "લા"
      ],
      [
        "▁નિર્",
        "ણ"
      ],
      [
        "ય",
        "ર"
      ],
      [
        "ક",
        "ડ"
      ],
      [
        "ફ",
        "્"
      ],
      [
        "િકા",
        "સ"
      ],
      [
        "ંધ",
        "ી"
      ],
      [
        "▁બ",
        "ને"
      ],
      [
        "▁ખા",
        "તે"
      ],
      [
        "▁મા",
        "હિત"
      ],
      [
        "▁થ",
        "યું"
      ],
      [
        "▁લ",
        "િ"
      ],
      [
        "▁પા",
        "કિસ્તા"
      ],
      [
        "ટ",
        "િંગ"
      ],
      [
        "▁અભ",
        "િ"
      ],
      [
        "ાવ",
        "વા"
      ],
      [
        "ધ",
        "ું"
      ],
      [
        "કા",
        "શ"
      ],
      [
        "એ",
        "મ"
      ],
      [
        "▁થ",
        "ય"
      ],
      [
        "▁પરિ",
        "ણ"
      ],
      [
        "કાર",
        "ી"
      ],
      [
        "▁લગ",
        "્ન"
      ],
      [
        "▁વર",
        "સાદ"
      ],
      [
        "સ",
        "ાય"
      ],
      [
        "ારી",
        "ઓ"
      ],
      [
        "્ય",
        "ાર"
      ],
      [
        "ત",
        "િક"
      ],
      [
        "ત",
        "મ"
      ],
      [
        "▁જે",
        "ટ"
      ],
      [
        "ાવ",
        "ે"
      ],
      [
        "▁કિ",
        "સ્સા"
      ],
      [
        "▁માહિત",
        "ી"
      ],
      [
        "ાવ",
        "ો"
      ],
      [
        "▁સા",
        "ધ"
      ],
      [
        "▁ચ",
        "ાર"
      ],
      [
        "ર્",
        "ન"
      ],
      [
        "▁છ",
        "ું"
      ],
      [
        "▁મુ",
        "શ્કે"
      ],
      [
        "▁કર",
        "વું"
      ],
      [
        "▁મુ",
        "જબ"
      ],
      [
        "▁જે",
        "ના"
      ],
      [
        "ટ",
        "માં"
      ],
      [
        "ું",
        "દર"
      ],
      [
        "ત્",
        "તિ"
      ],
      [
        "િ",
        "મ"
      ],
      [
        "▁અ",
        "ર"
      ],
      [
        "જી",
        "ક"
      ],
      [
        "▁ફ",
        "ા"
      ],
      [
        "▁વિ",
        "દ્ય"
      ],
      [
        "▁સ્",
        "વા"
      ],
      [
        "ષ્ટ",
        "્ર"
      ],
      [
        "ક્",
        "કસ"
      ],
      [
        "▁સ",
        "હિત"
      ],
      [
        "ં",
        "ડા"
      ],
      [
        "ળ",
        "ે"
      ],
      [
        "▁મ",
        "ૃત"
      ],
      [
        "ર્",
        "ચા"
      ],
      [
        "ણ",
        "માં"
      ],
      [
        "▁બી",
        "જી"
      ],
      [
        "▁જ",
        "િલ્લા"
      ],
      [
        "▁સમા",
        "વેશ"
      ],
      [
        "▁મા",
        "રી"
      ],
      [
        "▁પરિ",
        "વાર"
      ],
      [
        "▁ટ",
        "્ર"
      ],
      [
        "▁લા",
        "ંબા"
      ],
      [
        "▁જ",
        "ન્"
      ],
      [
        "▁ભાર",
        "તીય"
      ],
      [
        "▁લા",
        "ભ"
      ],
      [
        "▁સં",
        "ખ્યા"
      ],
      [
        "▁ઓ",
        "છા"
      ],
      [
        "▁ચો",
        "ક્કસ"
      ],
      [
        "▁ધ્યા",
        "ન"
      ],
      [
        "ભા",
        "ઈ"
      ],
      [
        "સ",
        "િક"
      ],
      [
        "▁મ",
        "ંદ"
      ],
      [
        "▁પ્",
        "લા"
      ],
      [
        "▁સમ",
        "ગ્ર"
      ],
      [
        "▁શો",
        "ધ"
      ],
      [
        "ડ",
        "વા"
      ],
      [
        "▁પ્ર",
        "યા"
      ],
      [
        "▁બનાવ",
        "વા"
      ],
      [
        "ત્ર",
        "ો"
      ],
      [
        "▁ત",
        "થા"
      ],
      [
        "હ",
        "રણ"
      ],
      [
        "ં",
        "બ"
      ],
      [
        "▁મહિ",
        "ના"
      ],
      [
        "▁પડ",
        "શે"
      ],
      [
        "▁ઉ",
        "દા"
      ],
      [
        "▁વિદ્ય",
        "ાર્થી"
      ],
      [
        "▁પ",
        "ડી"
      ],
      [
        "▁બા",
        "બ"
      ],
      [
        "▁ધરા",
        "વે"
      ],
      [
        "▁ટી",
        "મ"
      ],
      [
        "▁ઓ",
        "ળ"
      ],
      [
        "▁શ",
        "ી"
      ],
      [
        "▁પ",
        "ૈ"
      ],
      [
        "મ",
        "ણ"
      ],
      [
        "લે",
        "ટ"
      ],
      [
        "હ",
        "ન"
      ],
      [
        "▁ધ",
        "ી"
      ],
      [
        "કા",
        "ત"
      ],
      [
        "▁મૂ",
        "ળ"
      ],
      [
        "▁આપ",
        "ણે"
      ],
      [
        "▁લ",
        "ઇ"
      ],
      [
        "ટ",
        "ન"
      ],
      [
        "▁ગ",
        "્રા"
      ],
      [
        "ભ",
        "વ"
      ],
      [
        "ર",
        "િ"
      ],
      [
        "▁ક",
        "ાય"
      ],
      [
        "▁સે",
        "વા"
      ],
      [
        "▁ફ",
        "ાય"
      ],
      [
        "▁વ",
        "િકાસ"
      ],
      [
        "ં",
        "હ"
      ],
      [
        "▁એ",
        "સ"
      ],
      [
        "▁પોલી",
        "સે"
      ],
      [
        "▁મા",
        "મ"
      ],
      [
        "▁શ્રે",
        "ષ્ઠ"
      ],
      [
        "▁ત",
        "્યાર"
      ],
      [
        "આ",
        "ત"
      ],
      [
        "▁ક",
        "લાક"
      ],
      [
        "▁દ",
        "વા"
      ],
      [
        "રા",
        "મ"
      ],
      [
        "▁સ્",
        "ત્રી"
      ],
      [
        "▁મુ",
        "લા"
      ],
      [
        "▁ન",
        "ક્"
      ],
      [
        "▁ટ",
        "ા"
      ],
      [
        "ચ્",
        "ચ"
      ],
      [
        "લા",
        "ઈ"
      ],
      [
        "▁કિ",
        "ં"
      ],
      [
        "▁શ",
        "બ્"
      ],
      [
        "િય",
        "લ"
      ],
      [
        "ઓ",
        "ના"
      ],
      [
        "▁હ",
        "જુ"
      ],
      [
        "▁નિર્ણ",
        "ય"
      ],
      [
        "વ",
        "ક"
      ],
      [
        "▁ન",
        "ુક"
      ],
      [
        "▁કોઈ",
        "પણ"
      ],
      [
        "▁મ",
        "ત"
      ],
      [
        "▁રો",
        "ગ"
      ],
      [
        "▁બ",
        "ુ"
      ],
      [
        "▁હ",
        "ં"
      ],
      [
        "લ્",
        "પ"
      ],
      [
        "વા",
        "લ"
      ],
      [
        "લ",
        "ન"
      ],
      [
        "કાર",
        "ો"
      ],
      [
        "થ",
        "્"
      ],
      [
        "▁જા",
        "ણી"
      ],
      [
        "▁હા",
        "લ"
      ],
      [
        "▁સ",
        "ત"
      ],
      [
        "▁જાહે",
        "ર"
      ],
      [
        "▁તે",
        "નો"
      ],
      [
        "કી",
        "ય"
      ],
      [
        "▁વખ",
        "તે"
      ],
      [
        "▁સ",
        "ુંદર"
      ],
      [
        "ૃ",
        "તિ"
      ],
      [
        "▁ન",
        "જીક"
      ],
      [
        "▁મા",
        "રા"
      ],
      [
        "▁ઉત્પા",
        "દન"
      ],
      [
        "▁પ",
        "ૂર"
      ],
      [
        "▁બના",
        "વી"
      ],
      [
        "▁એ",
        "વું"
      ],
      [
        "▁તમા",
        "રે"
      ],
      [
        "▁મળ",
        "શે"
      ],
      [
        "▁દ",
        "િલ્"
      ],
      [
        "ં",
        "ઘ"
      ],
      [
        "▁સુ",
        "ધ"
      ],
      [
        "મા",
        "ર"
      ],
      [
        "▁થો",
        "ડા"
      ],
      [
        "મ્",
        "બર"
      ],
      [
        "લ્",
        "લે"
      ],
      [
        "વા",
        "સ"
      ],
      [
        "▁પ્રે",
        "મ"
      ],
      [
        "જ",
        "ય"
      ],
      [
        "▁અમ",
        "દા"
      ],
      [
        "▁હે",
        "ઠ"
      ],
      [
        "▁એ",
        "ન્"
      ],
      [
        "▁ચા",
        "લ"
      ],
      [
        "▁કેટ",
        "લી"
      ],
      [
        "▁લ",
        "ખ"
      ],
      [
        "▁કુ",
        "લ"
      ],
      [
        "▁માર્",
        "ગ"
      ],
      [
        "ી",
        "ર"
      ],
      [
        "શ",
        "્ય"
      ],
      [
        "▁ઇ",
        "ન્"
      ],
      [
        "▁ઉદા",
        "હરણ"
      ],
      [
        "▁હેઠ",
        "ળ"
      ],
      [
        "▁પે",
        "ટ"
      ],
      [
        "▁પ",
        "રી"
      ],
      [
        "▁સૂ",
        "ચ"
      ],
      [
        "મે",
        "શા"
      ],
      [
        "▁અમદા",
        "વાદ"
      ],
      [
        "▁નક્",
        "કી"
      ],
      [
        "▁છ",
        "ા"
      ],
      [
        "▁યા",
        "દ"
      ],
      [
        "ઠ",
        "ા"
      ],
      [
        "▁ચૂ",
        "ક"
      ],
      [
        "ી",
        "ને"
      ],
      [
        "▁આ",
        "ર"
      ],
      [
        "▁વ",
        "પરા"
      ],
      [
        "▁યો",
        "જના"
      ],
      [
        "▁વધ",
        "ારો"
      ],
      [
        "ક",
        "ત"
      ],
      [
        "▁ખ",
        "ાન"
      ],
      [
        "▁ગા",
        "ંધી"
      ],
      [
        "ળા",
        "માં"
      ],
      [
        "▁પ",
        "ક્ષ"
      ],
      [
        "ેશ",
        "ન"
      ],
      [
        "▁કે",
        "ન્દ્ર"
      ],
      [
        "▁દિલ્",
        "હી"
      ],
      [
        "▁અનુ",
        "સાર"
      ],
      [
        "ઇ",
        "લ"
      ],
      [
        "▁ર",
        "જૂ"
      ],
      [
        "ડિ",
        "યો"
      ],
      [
        "▁લોકો",
        "ને"
      ],
      [
        "▁ભ",
        "ો"
      ],
      [
        "▁પરિણ",
        "ામ"
      ],
      [
        "▁સ",
        "લા"
      ],
      [
        "▁એ",
        "વી"
      ],
      [
        "▁દિવ",
        "સે"
      ],
      [
        "▁ઉત્પા",
        "દ"
      ],
      [
        "▁વ",
        "ડા"
      ],
      [
        "▁હં",
        "મેશા"
      ],
      [
        "▁આ",
        "ંત"
      ],
      [
        "▁તે",
        "ણે"
      ],
      [
        "▁મ",
        "િન"
      ],
      [
        "▁ફ",
        "ેર"
      ],
      [
        "▁બા",
        "જુ"
      ],
      [
        "ગ",
        "્"
      ],
      [
        "▁પ્ર",
        "શ્"
      ],
      [
        "થ",
        "ો"
      ],
      [
        "▁નિ",
        "ષ્"
      ],
      [
        "▁પાછ",
        "ળ"
      ],
      [
        "▁મુ",
        "દ્"
      ],
      [
        "▁મા",
        "ણ"
      ],
      [
        "▁છે",
        "લ્લા"
      ],
      [
        "▁ક",
        "લા"
      ],
      [
        "મ",
        "તા"
      ],
      [
        "▁ઘ",
        "ર"
      ],
      [
        "▁ચા",
        "લુ"
      ],
      [
        "▁વિ",
        "રો"
      ],
      [
        "▁ભાજ",
        "પ"
      ],
      [
        "ન",
        "ગર"
      ],
      [
        "▁વ",
        "ૈ"
      ],
      [
        "ની",
        "ય"
      ],
      [
        "▁ન",
        "ં"
      ],
      [
        "▁વર્ષ",
        "ે"
      ],
      [
        "▁હ",
        "જાર"
      ],
      [
        "▁ભ",
        "ારે"
      ],
      [
        "▁ખે",
        "ડ"
      ],
      [
        "▁સત",
        "ત"
      ],
      [
        "્રી",
        "ય"
      ],
      [
        "ન",
        "ને"
      ],
      [
        "▁પ્રયા",
        "સ"
      ],
      [
        "▁ફ",
        "ક્ત"
      ],
      [
        "▁કાર્ય",
        "ક્ર"
      ],
      [
        "▁એ",
        "લ"
      ],
      [
        "▁સ્",
        "ટો"
      ],
      [
        "▁જો",
        "ડ"
      ],
      [
        "વ",
        "વામાં"
      ],
      [
        "▁ખ",
        "ર્ચ"
      ],
      [
        "▁ત",
        "ક"
      ],
      [
        "ફ",
        "ી"
      ],
      [
        "ં",
        "જ"
      ],
      [
        "▁લઈ",
        "ને"
      ],
      [
        "ઇ",
        "ડ"
      ],
      [
        "ના",
        "રા"
      ],
      [
        "▁વ",
        "ગર"
      ],
      [
        "▁એ",
        "ર"
      ],
      [
        "રા",
        "ક"
      ],
      [
        "▁ગુ",
        "ણ"
      ],
      [
        "▁જો",
        "ઇએ"
      ],
      [
        "▁સામ",
        "ગ્રી"
      ],
      [
        "્રી",
        "મ"
      ],
      [
        "▁સિ",
        "સ્ટ"
      ],
      [
        "પ્ર",
        "િય"
      ],
      [
        "ી",
        "ત"
      ],
      [
        "▁માં",
        "ગ"
      ],
      [
        "▁ચ",
        "ર્ચા"
      ],
      [
        "▁કર",
        "વો"
      ],
      [
        "▁પ",
        "ત્"
      ],
      [
        "▁જ",
        "શે"
      ],
      [
        "િક",
        "ો"
      ],
      [
        "▁જ",
        "મી"
      ],
      [
        "ણા",
        "ં"
      ],
      [
        "▁સ",
        "ારા"
      ],
      [
        "▁વિ",
        "ચ"
      ],
      [
        "▁દર્",
        "શ"
      ],
      [
        "▁ઓ",
        "છી"
      ],
      [
        "▁હતા",
        "ં"
      ],
      [
        "▁કર",
        "ા"
      ],
      [
        "▁જન્",
        "મ"
      ],
      [
        "સ",
        "ાન"
      ],
      [
        "િય",
        "મ"
      ],
      [
        "▁અ",
        "ત્ય"
      ],
      [
        "▁ઊ",
        "ંચ"
      ],
      [
        "▁શ",
        "ર"
      ],
      [
        "▁બેઠ",
        "ક"
      ],
      [
        "▁મો",
        "ત"
      ],
      [
        "ટ",
        "લ"
      ],
      [
        "▁બ",
        "ચ"
      ],
      [
        "▁મ",
        "જબ"
      ],
      [
        "▁ન",
        "વ"
      ],
      [
        "▁વધુ",
        "માં"
      ],
      [
        "▁હ",
        "કી"
      ],
      [
        "▁ર",
        "ચના"
      ],
      [
        "▁હ",
        "ુમ"
      ],
      [
        "▁ટ",
        "્રા"
      ],
      [
        "▁લે",
        "ખ"
      ],
      [
        "▁પ",
        "િતા"
      ],
      [
        "ષ",
        "ણ"
      ],
      [
        "▁પાર્",
        "ટી"
      ],
      [
        "▁ગ્ર",
        "ામ"
      ],
      [
        "▁કરવા",
        "નો"
      ],
      [
        "▁નિય",
        "મ"
      ],
      [
        "▁મધ",
        "્ય"
      ],
      [
        "ક",
        "મ"
      ],
      [
        "▁ભ",
        "ે"
      ],
      [
        "▁અ",
        "સ"
      ],
      [
        "▁વા",
        "ળ"
      ],
      [
        "▁મા",
        "ર"
      ],
      [
        "▁જ",
        "ય"
      ],
      [
        "▁સમ",
        "જ"
      ],
      [
        "ગી",
        "રી"
      ],
      [
        "▁જે",
        "વા"
      ],
      [
        "▁રા",
        "હ"
      ],
      [
        "▁સ્પ",
        "ષ્ટ"
      ],
      [
        "▁ખરી",
        "દી"
      ],
      [
        "▁એ",
        "ન"
      ],
      [
        "▁મે",
        "ચ"
      ],
      [
        "▁આ",
        "ક"
      ],
      [
        "ક",
        "ળ"
      ],
      [
        "જ",
        "રી"
      ],
      [
        "લે",
        "ન્ડ"
      ],
      [
        "▁સ",
        "પ્"
      ],
      [
        "▁કં",
        "ઈ"
      ],
      [
        "▁આ",
        "ઇ"
      ],
      [
        "વ",
        "તી"
      ],
      [
        "▁કા",
        "ઢ"
      ],
      [
        "બા",
        "દ"
      ],
      [
        "▁કર્",
        "મ"
      ],
      [
        "ન",
        "િયા"
      ],
      [
        "▁ગ",
        "ર્"
      ],
      [
        "ખ",
        "ર"
      ],
      [
        "▁આ",
        "યો"
      ],
      [
        "ઉ",
        "ન્ટ"
      ],
      [
        "▁અ",
        "ગા"
      ],
      [
        "ઓ",
        "એ"
      ],
      [
        "▁",
        "ઑ"
      ],
      [
        "▁ક",
        "હી"
      ],
      [
        "▁આ",
        "સ"
      ],
      [
        "ક",
        "ુ"
      ],
      [
        "ં",
        "કી"
      ],
      [
        "▁કે",
        "મ"
      ],
      [
        "▁ર",
        "શ"
      ],
      [
        "ાય",
        "ક"
      ],
      [
        "▁દે",
        "ખા"
      ],
      [
        "▁સં",
        "પ"
      ],
      [
        "▁ર",
        "મ"
      ],
      [
        "▁ટ",
        "ૂ"
      ],
      [
        "ફ",
        "ે"
      ],
      [
        "▁કર",
        "વી"
      ],
      [
        "ફ",
        "ા"
      ],
      [
        "▁પ્ર",
        "કાશ"
      ],
      [
        "▁ખો",
        "રાક"
      ],
      [
        "ન",
        "ંદ"
      ],
      [
        "ક",
        "ારે"
      ],
      [
        "▁અભ",
        "્યા"
      ],
      [
        "ાય",
        "ેલા"
      ],
      [
        "▁ફર",
        "િયા"
      ],
      [
        "▁અગા",
        "ઉ"
      ],
      [
        "વ",
        "ન"
      ],
      [
        "મ",
        "ંત્રી"
      ],
      [
        "મ",
        "ર"
      ],
      [
        "▁ગ",
        "ંભ"
      ],
      [
        "ં",
        "પ"
      ],
      [
        "▁શ",
        "ેર"
      ],
      [
        "▁વ",
        "ન"
      ],
      [
        "▁ફો",
        "ટો"
      ],
      [
        "▁પ",
        "દ"
      ],
      [
        "શ",
        "ક"
      ],
      [
        "▁ઝડ",
        "પ"
      ],
      [
        "▁સ્",
        "વાદ"
      ],
      [
        "ાઇ",
        "ન"
      ],
      [
        "▁ઓળ",
        "ખ"
      ],
      [
        "સ્પ",
        "િટ"
      ],
      [
        "વ",
        "િક"
      ],
      [
        "▁લોક",
        "પ્રિય"
      ],
      [
        "▁પૂર્",
        "વ"
      ],
      [
        "▁ઘ",
        "રે"
      ],
      [
        "ાય",
        "ેલ"
      ],
      [
        "▁કિં",
        "મત"
      ],
      [
        "ટ",
        "્"
      ],
      [
        "▁ગંભ",
        "ીર"
      ],
      [
        "ઠ",
        "ી"
      ],
      [
        "▁દા",
        "ખ"
      ],
      [
        "▁જ",
        "ન"
      ],
      [
        "▁સ",
        "માન"
      ],
      [
        "▁ત",
        "ર"
      ],
      [
        "તિ",
        "હા"
      ],
      [
        "તા",
        "વ"
      ],
      [
        "▁ગર",
        "મ"
      ],
      [
        "▁ઓ",
        "પ"
      ],
      [
        "રૂ",
        "પ"
      ],
      [
        "▁મિન",
        "િટ"
      ],
      [
        "▁વા",
        "ંચ"
      ],
      [
        "▁આ",
        "શ"
      ],
      [
        "▁બ",
        "્રા"
      ],
      [
        "ક્",
        "શન"
      ],
      [
        "▁આપ",
        "વા"
      ],
      [
        "▁ઉ",
        "ચ્ચ"
      ],
      [
        "ે",
        "ત્ર"
      ],
      [
        "▁બના",
        "વે"
      ],
      [
        "લ",
        "ની"
      ],
      [
        "▁આગ",
        "ામી"
      ],
      [
        "▁વધ",
        "ી"
      ],
      [
        "▁બ",
        "હુ"
      ],
      [
        "▁પ્ર",
        "દેશ"
      ],
      [
        "▁મ",
        "ુંબ"
      ],
      [
        "લ",
        "ર"
      ],
      [
        "▁આ",
        "ંખ"
      ],
      [
        "▁પત્",
        "ની"
      ],
      [
        "▁છો",
        "ડ"
      ],
      [
        "▁શ",
        "્રી"
      ],
      [
        "▁ડિ",
        "ઝ"
      ],
      [
        "ૃ",
        "ત્તિ"
      ],
      [
        "▁મૂ",
        "ક"
      ],
      [
        "ળ",
        "વા"
      ],
      [
        "▁મ",
        "ન"
      ],
      [
        "▁કરવા",
        "નું"
      ],
      [
        "▁ઉ",
        "લ્લે"
      ],
      [
        "▁કો",
        "ર્ટ"
      ],
      [
        "▁ઉલ્લે",
        "ખ"
      ],
      [
        "▁હો",
        "સ્પિટ"
      ],
      [
        "▁કર્મ",
        "ચ"
      ],
      [
        "ત્",
        "ત"
      ],
      [
        "લા",
        "ય"
      ],
      [
        "▁જે",
        "ને"
      ],
      [
        "દ્ધ",
        "િ"
      ],
      [
        "▁વ",
        "જન"
      ],
      [
        "મ્",
        "બ"
      ],
      [
        "ર",
        "િકા"
      ],
      [
        "સ",
        "ના"
      ],
      [
        "▁ચા",
        "લી"
      ],
      [
        "દ",
        "્ર"
      ],
      [
        "▁પ",
        "ટેલ"
      ],
      [
        "▁મી",
        "ડિયા"
      ],
      [
        "▁રહ",
        "્યાં"
      ],
      [
        "▁કિસ્સા",
        "માં"
      ],
      [
        "▁પ્રા",
        "પ્ત"
      ],
      [
        "ઝ",
        "ા"
      ],
      [
        "▁અમે",
        "રિકા"
      ],
      [
        "કાર",
        "ા"
      ],
      [
        "▁કો",
        "ર્"
      ],
      [
        "ત્ર",
        "ા"
      ],
      [
        "પુ",
        "ર"
      ],
      [
        "▁ફ",
        "ી"
      ],
      [
        "▁મહ",
        "ા"
      ],
      [
        "▁આ",
        "ઈ"
      ],
      [
        "▁હ",
        "ાર્"
      ],
      [
        "ણ",
        "ું"
      ],
      [
        "િ",
        "ટી"
      ],
      [
        "▁મેળ",
        "વી"
      ],
      [
        "ગ",
        "્ય"
      ],
      [
        "▁મિ",
        "શ"
      ],
      [
        "▁ખ",
        "રા"
      ],
      [
        "રા",
        "ત"
      ],
      [
        "▁આ",
        "નંદ"
      ],
      [
        "▁નં",
        "બર"
      ],
      [
        "▁જે",
        "વી"
      ],
      [
        "▁તે",
        "વી"
      ],
      [
        "▁પસંદ",
        "ગી"
      ],
      [
        "▁કામ",
        "ગીરી"
      ],
      [
        "ખ",
        "ો"
      ],
      [
        "▁સ",
        "ભ"
      ],
      [
        "▁દર્",
        "દી"
      ],
      [
        "ાવ",
        "વામાં"
      ],
      [
        "▁મુલા",
        "કાત"
      ],
      [
        "સ",
        "ની"
      ],
      [
        "દ્ધ",
        "તિ"
      ],
      [
        "▁નુક",
        "સાન"
      ],
      [
        "▁",
        "ઢ"
      ],
      [
        "▁સંપૂર્ણ",
        "પણે"
      ],
      [
        "ઉ",
        "ન્ડ"
      ],
      [
        "▁જુ",
        "ઓ"
      ],
      [
        "▁પૂર્",
        "ણ"
      ],
      [
        "ુ",
        "ર"
      ],
      [
        "▁શ",
        "ૈ"
      ],
      [
        "▁સં",
        "સ્થા"
      ],
      [
        "▁બે",
        "ન્"
      ],
      [
        "▁જ",
        "ણા"
      ],
      [
        "વા",
        "ળા"
      ],
      [
        "ં",
        "ડી"
      ],
      [
        "વ",
        "તા"
      ],
      [
        "▁પૂ",
        "છ"
      ],
      [
        "▁જી",
        "ત"
      ],
      [
        "▁પુ",
        "ન"
      ],
      [
        "▁કેટલી",
        "ક"
      ],
      [
        "▁મહ",
        "ાન"
      ],
      [
        "▁રો",
        "કા"
      ],
      [
        "▁પહોંચ",
        "ી"
      ],
      [
        "દર્",
        "શન"
      ],
      [
        "કાર",
        "ક"
      ],
      [
        "▁ગ",
        "યું"
      ],
      [
        "સ",
        "ભા"
      ],
      [
        "▁હ",
        "ી"
      ],
      [
        "વા",
        "થી"
      ],
      [
        "▁છો",
        "ડી"
      ],
      [
        "▁પ",
        "દ્ધતિ"
      ],
      [
        "▁લક્ષ",
        "ણો"
      ],
      [
        "▁વિ",
        "દેશ"
      ],
      [
        "▁અંદ",
        "ર"
      ],
      [
        "▁ર",
        "ુ"
      ],
      [
        "▁વિ",
        "ષ"
      ],
      [
        "▁જ",
        "ઈ"
      ],
      [
        "વ",
        "ર્"
      ],
      [
        "▁વિસ્તાર",
        "માં"
      ],
      [
        "ઘ",
        "ા"
      ],
      [
        "સ",
        "ન"
      ],
      [
        "ૂ",
        "ટ"
      ],
      [
        "▁વિ",
        "ના"
      ],
      [
        "મ",
        "ન"
      ],
      [
        "ધ",
        "િ"
      ],
      [
        "્રે",
        "ડ"
      ],
      [
        "▁મજબ",
        "ૂત"
      ],
      [
        "▁સ્",
        "તર"
      ],
      [
        "▁વ",
        "સ"
      ],
      [
        "ડ",
        "વામાં"
      ],
      [
        "▁આરો",
        "પી"
      ],
      [
        "▁ના",
        "ની"
      ],
      [
        "▁સિસ્ટ",
        "મ"
      ],
      [
        "ૂ",
        "તો"
      ],
      [
        "સ્થ",
        "િતિ"
      ],
      [
        "▁શરૂ",
        "આત"
      ],
      [
        "▁અ",
        "ડ"
      ],
      [
        "ડ",
        "ું"
      ],
      [
        "▁પ",
        "ક"
      ],
      [
        "▁હ",
        "વા"
      ],
      [
        "ર",
        "બી"
      ],
      [
        "▁ચ",
        "લા"
      ],
      [
        "▁ક",
        "ી"
      ],
      [
        "▁બ",
        "્ર"
      ],
      [
        "▁સા",
        "ં"
      ],
      [
        "ટે",
        "ડ"
      ],
      [
        "ર્",
        "તા"
      ],
      [
        "▁આપ",
        "્યો"
      ],
      [
        "દ",
        "ારી"
      ],
      [
        "પ્",
        "સ"
      ],
      [
        "▁લા",
        "લ"
      ],
      [
        "▁વર્ષ",
        "ની"
      ],
      [
        "▁ઝ",
        "ા"
      ],
      [
        "▁આવે",
        "લા"
      ],
      [
        "▁ક્ષ",
        "ેત્ર"
      ],
      [
        "▁ફરિયા",
        "દ"
      ],
      [
        "આ",
        "રી"
      ],
      [
        "▁સ",
        "વારે"
      ],
      [
        "ચ્",
        "છા"
      ],
      [
        "વા",
        "હી"
      ],
      [
        "▁ઝડ",
        "પી"
      ],
      [
        "▁ઉ",
        "દ"
      ],
      [
        "▁પસ",
        "ાર"
      ],
      [
        "શ્",
        "ચ"
      ],
      [
        "▁મ",
        "ર"
      ],
      [
        "જ",
        "નો"
      ],
      [
        "▁પ્રકાર",
        "ની"
      ],
      [
        "▁હો",
        "વાનું"
      ],
      [
        "ર",
        "સ"
      ],
      [
        "▁શા",
        "ળા"
      ],
      [
        "ષ",
        "્ય"
      ],
      [
        "▁પ્રકાર",
        "ના"
      ],
      [
        "▁ર",
        "કમ"
      ],
      [
        "▁સર",
        "કારે"
      ],
      [
        "ત",
        "ંત્ર"
      ],
      [
        "િત",
        "્રો"
      ],
      [
        "▁સ્",
        "ટા"
      ],
      [
        "▁સ્",
        "વી"
      ],
      [
        "▁ભ",
        "ગ"
      ],
      [
        "▁લે",
        "વામાં"
      ],
      [
        "▁જો",
        "ડા"
      ],
      [
        "વ",
        "ુ"
      ],
      [
        "જ્ઞ",
        "ાન"
      ],
      [
        "▁અભ્યા",
        "સ"
      ],
      [
        "▁મૃત",
        "્યુ"
      ],
      [
        "શ",
        "ું"
      ],
      [
        "સ્ટ",
        "ર"
      ],
      [
        "▁લી",
        "ધો"
      ],
      [
        "▁વિ",
        "શા"
      ],
      [
        "▁ન",
        "હિ"
      ],
      [
        "▁ક",
        "્યાં"
      ],
      [
        "▁એક",
        "ા"
      ],
      [
        "▁શરી",
        "ર"
      ],
      [
        "▁રો",
        "ડ"
      ],
      [
        "▁મહત્વ",
        "પૂર્ણ"
      ],
      [
        "▁બા",
        "કી"
      ],
      [
        "ાર",
        "ંભ"
      ],
      [
        "▁પ્રમા",
        "ણે"
      ],
      [
        "▁ગ્રા",
        "હ"
      ],
      [
        "▁એ",
        "વા"
      ],
      [
        "▁તે",
        "લ"
      ],
      [
        "ડા",
        "ં"
      ],
      [
        "▁વે",
        "પ"
      ],
      [
        "▁ઉપ",
        "કરણ"
      ],
      [
        "▁ત",
        "બ"
      ],
      [
        "▁અ",
        "ર્"
      ],
      [
        "▁ઇ",
        "ન્ડ"
      ],
      [
        "મ",
        "ના"
      ],
      [
        "▁ર",
        "ન"
      ],
      [
        "▁વા",
        "સ્ત"
      ],
      [
        "ષ",
        "ા"
      ],
      [
        "▁દ",
        "ૂ"
      ],
      [
        "▁પાસે",
        "થી"
      ],
      [
        "▁કાર્ય",
        "વાહી"
      ],
      [
        "▁અભિ",
        "ને"
      ],
      [
        "▁ખરા",
        "બ"
      ],
      [
        "▁આ",
        "ત"
      ],
      [
        "▁સા",
        "ંભ"
      ],
      [
        "▁વિ",
        "ભાગ"
      ],
      [
        "▁આસ",
        "પાસ"
      ],
      [
        "લ",
        "ય"
      ],
      [
        "▁જમી",
        "ન"
      ],
      [
        "▁મેળ",
        "વવા"
      ],
      [
        "▁ખા",
        "તરી"
      ],
      [
        "મ્",
        "સ"
      ],
      [
        "▁દ",
        "્ર"
      ],
      [
        "મુ",
        "ખ"
      ],
      [
        "▁ખેડ",
        "ૂતો"
      ],
      [
        "▁વ",
        "હે"
      ],
      [
        "▁આવ",
        "તા"
      ],
      [
        "ફ્",
        "ટ"
      ],
      [
        "▁પૂ",
        "રી"
      ],
      [
        "▁ક",
        "ૃ"
      ],
      [
        "▁નો",
        "કરી"
      ],
      [
        "▁પરિ",
        "સ્થિતિ"
      ],
      [
        "▁તે",
        "નું"
      ],
      [
        "ન્",
        "ન"
      ],
      [
        "▁અર",
        "જી"
      ],
      [
        "▁પર",
        "થી"
      ],
      [
        "સ",
        "ંગ"
      ],
      [
        "▁શા",
        "ંત"
      ],
      [
        "▁સમ",
        "ી"
      ],
      [
        "ૂ",
        "લ"
      ],
      [
        "િક",
        "લ"
      ],
      [
        "▁ઇ",
        "ન્ટ"
      ],
      [
        "▁સ",
        "પા"
      ],
      [
        "દ્",
        "ધા"
      ],
      [
        "▁રાજ",
        "કો"
      ],
      [
        "બ",
        "્ર"
      ],
      [
        "ષ્ટ",
        "્રીય"
      ],
      [
        "▁મુશ્કે",
        "લ"
      ],
      [
        "▁શ",
        "ક્તિ"
      ],
      [
        "ે",
        "દ"
      ],
      [
        "▁પ્ર",
        "તિક"
      ],
      [
        "▁હા",
        "લમાં"
      ],
      [
        "▁ત",
        "્રી"
      ],
      [
        "▁પ્ર",
        "ારંભ"
      ],
      [
        "ર",
        "વ"
      ],
      [
        "િય",
        "ર"
      ],
      [
        "▁ને",
        "તા"
      ],
      [
        "▁યુ",
        "ન"
      ],
      [
        "▁એ",
        "જ"
      ],
      [
        "▁માં",
        "થી"
      ],
      [
        "▁ભ",
        "ી"
      ],
      [
        "▁બ",
        "જાર"
      ],
      [
        "ર્",
        "વ"
      ],
      [
        "▁સ",
        "ત્તા"
      ],
      [
        "▁સ્થા",
        "પ"
      ],
      [
        "રે",
        "ન્દ્ર"
      ],
      [
        "▁દાખ",
        "લ"
      ],
      [
        "▁વી",
        "ડિયો"
      ],
      [
        "ઉ",
        "ટ"
      ],
      [
        "▁દિવ",
        "સો"
      ],
      [
        "▁મ",
        "િલ"
      ],
      [
        "પ્ર",
        "ધાન"
      ],
      [
        "મ",
        "િક"
      ],
      [
        "▁ત",
        "ી"
      ],
      [
        "▁ખ",
        "રે"
      ],
      [
        "સ્",
        "તી"
      ],
      [
        "લા",
        "ં"
      ],
      [
        "કારા",
        "ત્મક"
      ],
      [
        "▁કર",
        "તી"
      ],
      [
        "▁આ",
        "રામ"
      ],
      [
        "▁આયો",
        "જન"
      ],
      [
        "ન્",
        "સી"
      ],
      [
        "▁સ્થાન",
        "િક"
      ],
      [
        "▁ક",
        "ૉ"
      ],
      [
        "આ",
        "ઈ"
      ],
      [
        "▁લાગ",
        "ુ"
      ],
      [
        "▁ધ્યા",
        "નમાં"
      ],
      [
        "પ્ર",
        "દ"
      ],
      [
        "▁મા",
        "ળ"
      ],
      [
        "▁ગ",
        "ેર"
      ],
      [
        "▁કરી",
        "એ"
[...]
